{
  "version": "1.0",
  "truncation": null,
  "padding": null,
  "added_tokens": [
    {
      "id": 0,
      "content": "[PAD]",
      "single_word": false,
      "lstrip": false,
      "rstrip": false,
      "normalized": false,
      "special": true
    },
    {
      "id": 1,
      "content": "[UNK]",
      "single_word": false,
      "lstrip": false,
      "rstrip": false,
      "normalized": false,
      "special": true
    },
    {
      "id": 2,
      "content": "[BOS]",
      "single_word": false,
      "lstrip": false,
      "rstrip": false,
      "normalized": false,
      "special": true
    },
    {
      "id": 3,
      "content": "[EOS]",
      "single_word": false,
      "lstrip": false,
      "rstrip": false,
      "normalized": false,
      "special": true
    },
    {
      "id": 4,
      "content": "[SEP]",
      "single_word": false,
      "lstrip": false,
      "rstrip": false,
      "normalized": false,
      "special": true
    }
  ],
  "normalizer": {
    "type": "NFC"
  },
  "pre_tokenizer": {
    "type": "Metaspace",
    "replacement": "▁",
    "prepend_scheme": "always",
    "split": true
  },
  "post_processor": null,
  "decoder": {
    "type": "Metaspace",
    "replacement": "▁",
    "prepend_scheme": "always",
    "split": true
  },
  "model": {
    "type": "BPE",
    "dropout": null,
    "unk_token": "[UNK]",
    "continuing_subword_prefix": null,
    "end_of_word_suffix": null,
    "fuse_unk": false,
    "byte_fallback": false,
    "ignore_merges": false,
    "vocab": {
      "[PAD]": 0,
      "[UNK]": 1,
      "[BOS]": 2,
      "[EOS]": 3,
      "[SEP]": 4,
      "\t": 5,
      "\n": 6,
      "!": 7,
      "\"": 8,
      "$": 9,
      "%": 10,
      "'": 11,
      "(": 12,
      ")": 13,
      "*": 14,
      "+": 15,
      ",": 16,
      "-": 17,
      ".": 18,
      "/": 19,
      "0": 20,
      "1": 21,
      "2": 22,
      "3": 23,
      "4": 24,
      "5": 25,
      "6": 26,
      "7": 27,
      "8": 28,
      "9": 29,
      ":": 30,
      ";": 31,
      "<": 32,
      "=": 33,
      ">": 34,
      "?": 35,
      "@": 36,
      "A": 37,
      "B": 38,
      "C": 39,
      "D": 40,
      "E": 41,
      "F": 42,
      "G": 43,
      "H": 44,
      "I": 45,
      "J": 46,
      "K": 47,
      "L": 48,
      "M": 49,
      "N": 50,
      "O": 51,
      "P": 52,
      "Q": 53,
      "R": 54,
      "S": 55,
      "T": 56,
      "U": 57,
      "V": 58,
      "W": 59,
      "X": 60,
      "Y": 61,
      "Z": 62,
      "\\": 63,
      "_": 64,
      "a": 65,
      "b": 66,
      "c": 67,
      "d": 68,
      "e": 69,
      "f": 70,
      "g": 71,
      "h": 72,
      "i": 73,
      "j": 74,
      "k": 75,
      "l": 76,
      "m": 77,
      "n": 78,
      "o": 79,
      "p": 80,
      "q": 81,
      "r": 82,
      "s": 83,
      "t": 84,
      "u": 85,
      "v": 86,
      "w": 87,
      "x": 88,
      "y": 89,
      "z": 90,
      "‘": 91,
      "’": 92,
      "“": 93,
      "”": 94,
      "▁": 95,
      "▁t": 96,
      "me": 97,
      "▁T": 98,
      "st": 99,
      "er": 100,
      "at": 101,
      "▁th": 102,
      "id": 103,
      "▁a": 104,
      "▁A": 105,
      "RO": 106,
      "▁S": 107,
      "in": 108,
      "CT": 109,
      "▁F": 110,
      "ame": 111,
      "▁=": 112,
      "▁the": 113,
      "nt": 114,
      "or": 115,
      "ECT": 116,
      "▁AS": 117,
      "EL": 118,
      "ROM": 119,
      "ELECT": 120,
      "▁FROM": 121,
      "▁c": 122,
      "name": 123,
      "▁SELECT": 124,
      "1.": 125,
      "▁W": 126,
      "IN": 127,
      "on": 128,
      "es": 129,
      "2.": 130,
      "▁O": 131,
      "ER": 132,
      "it": 133,
      "▁p": 134,
      "re": 135,
      "ou": 136,
      "an": 137,
      "of": 138,
      "▁J": 139,
      "▁JO": 140,
      "▁JOIN": 141,
      "▁ON": 142,
      "de": 143,
      "▁of": 144,
      "ar": 145,
      "HER": 146,
      "▁WHER": 147,
      "▁WHERE": 148,
      "▁T1.": 149,
      "ion": 150,
      "_id": 151,
      "▁w": 152,
      "▁T2.": 153,
      "▁\"": 154,
      "ct": 155,
      "▁m": 156,
      "ic": 157,
      "ount": 158,
      "ro": 159,
      "▁B": 160,
      "se": 161,
      "ap": 162,
      "?\n": 163,
      "le": 164,
      "▁name": 165,
      "▁BY": 166,
      "nd": 167,
      "al": 168,
      "ho": 169,
      "▁st": 170,
      "▁d": 171,
      "ate": 172,
      "▁f": 173,
      "ra": 174,
      "3.": 175,
      "▁t1.": 176,
      "is": 177,
      ".\n": 178,
      "▁b": 179,
      "▁in": 180,
      "aper": 181,
      "_name": 182,
      "▁,": 183,
      "▁D": 184,
      "ve": 185,
      "ing": 186,
      "hat": 187,
      "▁t2.": 188,
      "▁s": 189,
      "ation": 190,
      "▁h": 191,
      "▁are": 192,
      "um": 193,
      "▁L": 194,
      "la": 195,
      "▁count": 196,
      "ust": 197,
      "yp": 198,
      "▁C": 199,
      "▁What": 200,
      "ist": 201,
      "▁and": 202,
      "ome": 203,
      "ge": 204,
      "▁e": 205,
      "ment": 206,
      "▁T1": 207,
      "▁T2": 208,
      "▁G": 209,
      "th": 210,
      "ll": 211,
      "_c": 212,
      "omer": 213,
      "ustomer": 214,
      "▁t3.": 215,
      "ity": 216,
      "ber": 217,
      "lo": 218,
      "ed": 219,
      "ID": 220,
      "▁1": 221,
      "ri": 222,
      "(*": 223,
      "(*)": 224,
      "▁n": 225,
      "00": 226,
      "art": 227,
      "mp": 228,
      ";\n": 229,
      "▁OR": 230,
      "ch": 231,
      "▁ha": 232,
      "UP": 233,
      "ROUP": 234,
      "▁GROUP": 235,
      "ode": 236,
      "ir": 237,
      "▁is": 238,
      "ver": 239,
      "uth": 240,
      "▁(": 241,
      "aperid": 242,
      "paperid": 243,
      "ke": 244,
      "uthor": 245,
      "uct": 246,
      "il": 247,
      "DER": 248,
      "▁ORDER": 249,
      "ye": 250,
      "▁count(*)": 251,
      "ord": 252,
      "ST": 253,
      "umber": 254,
      "▁H": 255,
      "rod": 256,
      "IST": 257,
      "ith": 258,
      "ce": 259,
      "roduct": 260,
      "ol": 261,
      "▁names": 262,
      "ND": 263,
      "▁AND": 264,
      "INCT": 265,
      "ISTINCT": 266,
      "us": 267,
      "▁all": 268,
      "op": 269,
      "ess": 270,
      "▁t2": 271,
      "▁t1": 272,
      "▁2": 273,
      "▁re": 274,
      "_ID": 275,
      "▁t4": 276,
      "our": 277,
      "en": 278,
      "ude": 279,
      "▁with": 280,
      "order": 281,
      "▁paper": 282,
      "▁P": 283,
      "▁de": 284,
      "▁'": 285,
      "▁number": 286,
      "▁LI": 287,
      "▁)": 288,
      "ur": 289,
      "ind": 290,
      "any": 291,
      "udent": 292,
      "▁that": 293,
      "▁who": 294,
      "ype": 295,
      "_code": 296,
      "ES": 297,
      "IT": 298,
      "▁DISTINCT": 299,
      "▁have": 300,
      "▁state": 301,
      "ig": 302,
      "▁customer": 303,
      "ub": 304,
      "ESC": 305,
      "▁DESC": 306,
      "▁T3.": 307,
      "oc": 308,
      "▁>": 309,
      "hra": 310,
      "\"\n": 311,
      "yphra": 312,
      "MIT": 313,
      "▁LIMIT": 314,
      "keyphra": 315,
      "▁Find": 316,
      "ot": 317,
      "et": 318,
      "keyphrase": 319,
      "ue": 320,
      "ff": 321,
      "▁for": 322,
      "ul": 323,
      "ers": 324,
      "author": 325,
      "▁R": 326,
      "how": 327,
      "ow": 328,
      "NT": 329,
      "▁mo": 330,
      "▁me": 331,
      "▁1\n": 332,
      "ach": 333,
      "om": 334,
      "▁M": 335,
      "▁many": 336,
      "▁t4.": 337,
      "_t": 338,
      "\";\n": 339,
      "part": 340,
      "Name": 341,
      "year": 342,
      "ie": 343,
      "OU": 344,
      "▁l": 345,
      "ere": 346,
      "▁product": 347,
      "▁student": 348,
      "act": 349,
      "▁COU": 350,
      "▁t3": 351,
      "ich": 352,
      "irst": 353,
      "ice": 354,
      "▁g": 355,
      "ies": 356,
      "age": 357,
      "ad": 358,
      "▁COUNT": 359,
      "as": 360,
      "▁city": 361,
      "igh": 362,
      "partment": 363,
      "ore": 364,
      "ument": 365,
      "ran": 366,
      "▁id": 367,
      "ry": 368,
      "pt": 369,
      "ip": 370,
      "▁ma": 371,
      "▁co": 372,
      "im": 373,
      "ven": 374,
      "▁order": 375,
      "▁T1.c": 376,
      "▁St": 377,
      "▁How": 378,
      "mplo": 379,
      "ocument": 380,
      "mploye": 381,
      "s\n": 382,
      "hich": 383,
      "last": 384,
      "est": 385,
      "river": 386,
      "venue": 387,
      "▁by": 388,
      "▁t3.paperid": 389,
      "▁Show": 390,
      "ail": 391,
      "lay": 392,
      "▁than": 393,
      "_id\n": 394,
      "ong": 395,
      "sta": 396,
      "authorid": 397,
      "am": 398,
      "▁most": 399,
      "itle": 400,
      "▁each": 401,
      "▁IN": 402,
      "ress": 403,
      "▁author": 404,
      "ort": 405,
      "_type": 406,
      "oo": 407,
      "ss": 408,
      "▁r": 409,
      "ac": 410,
      "s.\n": 411,
      "dress": 412,
      "▁lo": 413,
      "s?\n": 414,
      "'\n": 415,
      "_p": 416,
      "orm": 417,
      "te": 418,
      "▁T2.c": 419,
      "ay": 420,
      "ect": 421,
      "▁first": 422,
      "▁List": 423,
      "ase": 424,
      "rit": 425,
      "▁or": 426,
      "▁E": 427,
      "▁has": 428,
      "rant": 429,
      "▁20": 430,
      "▁employe": 431,
      "▁writ": 432,
      "▁T3": 433,
      "_d": 434,
      "ourse": 435,
      "▁av": 436,
      "ive": 437,
      "urn": 438,
      "▁department": 439,
      "opul": 440,
      "vie": 441,
      "▁what": 442,
      "▁pro": 443,
      "▁last": 444,
      "ubl": 445,
      "verage": 446,
      "ON": 447,
      "ck": 448,
      "▁average": 449,
      "ast": 450,
      "▁200": 451,
      "▁te": 452,
      "ates": 453,
      "ING": 454,
      "▁di": 455,
      "ain": 456,
      "el": 457,
      "port": 458,
      "▁river": 459,
      "▁high": 460,
      "ance": 461,
      "▁t2.c": 462,
      "ating": 463,
      "ION": 464,
      "▁t2.paperid": 465,
      "lub": 466,
      "▁customers": 467,
      "g(": 468,
      "▁avg(": 469,
      "opulation": 470,
      "ject": 471,
      "▁play": 472,
      "ustomer_id": 473,
      "▁tra": 474,
      "▁201": 475,
      "▁state_name": 476,
      "_n": 477,
      "▁papers": 478,
      "keyphraseid": 479,
      "cc": 480,
      "▁?\n": 481,
      "tail": 482,
      "▁N": 483,
      "urant": 484,
      "one": 485,
      "▁max": 486,
      "eop": 487,
      "▁pr": 488,
      "AV": 489,
      "SELECT": 490,
      "mber": 491,
      "_ID\n": 492,
      "AVING": 493,
      "▁document": 494,
      "▁HAVING": 495,
      "▁comp": 496,
      "eople": 497,
      "▁(SELECT": 498,
      "otal": 499,
      "▁writes": 500,
      "▁le": 501,
      "ult": 502,
      "hip": 503,
      "▁3": 504,
      "room": 505,
      "▁sc": 506,
      "ding": 507,
      "▁at": 508,
      ")\n": 509,
      "▁bu": 510,
      "esc": 511,
      "ations": 512,
      "staurant": 513,
      "int": 514,
      "▁publ": 515,
      "▁t1.c": 516,
      "escri": 517,
      "out": 518,
      "▁T1.name": 519,
      "ft": 520,
      "▁Which": 521,
      "▁cit": 522,
      "rt": 523,
      "▁population": 524,
      "▁more": 525,
      "ory": 526,
      "▁do": 527,
      "▁students": 528,
      "ddress": 529,
      "em": 530,
      "▁part": 531,
      "▁date": 532,
      "ition": 533,
      "aid": 534,
      "product": 535,
      "▁not": 536,
      "escript": 537,
      "iv": 538,
      "_f": 539,
      "▁dist": 540,
      "escription": 541,
      "▁t1.name": 542,
      "ent": 543,
      "▁which": 544,
      "_de": 545,
      "▁t5": 546,
      "ary": 547,
      "ctor": 548,
      "ian": 549,
      "iness": 550,
      "usiness": 551,
      "▁total": 552,
      "AT": 553,
      "aff": 554,
      "ish": 555,
      "▁whose": 556,
      "▁COUNT(*)": 557,
      "venueid": 558,
      "▁year": 559,
      "▁member": 560,
      "ction": 561,
      "ab": 562,
      "all": 563,
      "king": 564,
      "▁employees": 565,
      "▁u": 566,
      "▁an": 567,
      "ard": 568,
      "hool": 569,
      "▁ch": 570,
      "_st": 571,
      "▁j": 572,
      "▁<": 573,
      "ccount": 574,
      "▁type": 575,
      "▁air": 576,
      "_C": 577,
      "▁V": 578,
      "and": 579,
      "lass": 580,
      "title": 581,
      "ag": 582,
      "▁products": 583,
      "ut": 584,
      "rtist": 585,
      "▁5": 586,
      "os": 587,
      "▁as": 588,
      "▁song": 589,
      "▁to": 590,
      "▁min": 591,
      "_T": 592,
      "rom": 593,
      "_type_code": 594,
      "ateg": 595,
      "_b": 596,
      "_of": 597,
      "▁v": 598,
      "ication": 599,
      "ood": 600,
      "OT": 601,
      "_in": 602,
      "ine": 603,
      "tails": 604,
      "omp": 605,
      "▁t1.authorid": 606,
      "▁se": 607,
      "AR": 608,
      "gion": 609,
      "ight": 610,
      "▁country": 611,
      "atus": 612,
      "▁course": 613,
      "pid": 614,
      "erv": 615,
      "alary": 616,
      "▁area": 617,
      "action": 618,
      "ble": 619,
      "▁Y": 620,
      "▁ids": 621,
      "ategory": 622,
      "str": 623,
      "▁);\n": 624,
      "▁al": 625,
      "ated": 626,
      "▁Ret": 627,
      "_A": 628,
      "ffere": 629,
      "fferent": 630,
      "▁ph": 631,
      "ilm": 632,
      "0\n": 633,
      "gan": 634,
      "oint": 635,
      "▁loc": 636,
      "▁people": 637,
      "▁en": 638,
      "▁different": 639,
      "ket": 640,
      "authorname": 641,
      "ATION": 642,
      "atase": 643,
      "ataset": 644,
      "qu": 645,
      "ure": 646,
      "▁Return": 647,
      "erg": 648,
      "ars": 649,
      "▁Count": 650,
      "ited": 651,
      "▁ge": 652,
      "▁Student": 653,
      "▁highest": 654,
      "OC": 655,
      "ilding": 656,
      "▁on": 657,
      "nding": 658,
      "gest": 659,
      "▁border": 660,
      "res": 661,
      "ours": 662,
      "▁there": 663,
      "olle": 664,
      "erson": 665,
      "mount": 666,
      "▁title": 667,
      "ill": 668,
      "▁restaurant": 669,
      "▁count(": 670,
      "▁Customer": 671,
      "ors": 672,
      "_number": 673,
      "ob": 674,
      "▁LOC": 675,
      "▁LOCATION": 676,
      "Id": 677,
      "red": 678,
      "tt": 679,
      "DISTINCT": 680,
      "pp": 681,
      "▁age": 682,
      "ices": 683,
      "▁sum": 684,
      "ns": 685,
      "ERS": 686,
      "▁code": 687,
      "▁100": 688,
      "rans": 689,
      "laim": 690,
      "staff": 691,
      "▁Name": 692,
      "ity_name": 693,
      "imum": 694,
      "▁artist": 695,
      "▁from": 696,
      "▁t5.": 697,
      "amp": 698,
      "rice": 699,
      "▁address": 700,
      "_date": 701,
      "▁I": 702,
      "cending": 703,
      "ni": 704,
      "▁U": 705,
      "_D": 706,
      "end": 707,
      "inct": 708,
      "raft": 709,
      "▁distinct": 710,
      "▁sum(": 711,
      "ransaction": 712,
      "▁T2.name": 713,
      "▁\"C": 714,
      "▁be": 715,
      "St": 716,
      "▁us": 717,
      "▁INT": 718,
      "view": 719,
      "address": 720,
      "og": 721,
      "▁cap": 722,
      "▁T1.st": 723,
      "ERSECT": 724,
      "▁INTERSECT": 725,
      "ime": 726,
      "▁least": 727,
      "▁account": 728,
      "EP": 729,
      "oth": 730,
      "▁T2.p": 731,
      "usiness_id": 732,
      "iz": 733,
      "business_id": 734,
      "▁school": 735,
      "▁how": 736,
      "▁>=": 737,
      "▁max(": 738,
      "ayment": 739,
      "▁staff": 740,
      "ampus": 741,
      "EAR": 742,
      "▁count(DISTINCT": 743,
      "ces": 744,
      "arket": 745,
      "ician": 746,
      "▁NOT": 747,
      "▁paperkeyphrase": 748,
      "▁T1.p": 749,
      "▁t1.authorname": 750,
      "iss": 751,
      "roll": 752,
      "acult": 753,
      "uID": 754,
      "▁keyphrase": 755,
      "▁publication": 756,
      "dept": 757,
      "▁salary": 758,
      "▁T1.d": 759,
      "roject": 760,
      "ergy": 761,
      "EN": 762,
      "▁party": 763,
      "craft": 764,
      "▁res": 765,
      "_P": 766,
      "▁\"S": 767,
      "▁MA": 768,
      "▁T1.id": 769,
      "▁Re": 770,
      "ant": 771,
      "▁any": 772,
      "▁T4": 773,
      "hop": 774,
      "▁Give": 775,
      "▁ra": 776,
      "ical": 777,
      "EPT": 778,
      "▁ret": 779,
      "product_id": 780,
      "▁MAX": 781,
      "▁t1.keyphraseid": 782,
      "▁YEAR": 783,
      "aculty": 784,
      "▁return": 785,
      "ork": 786,
      "▁lar": 787,
      "ollege": 788,
      "_m": 789,
      "_name\n": 790,
      "der": 791,
      "nal": 792,
      "sed": 793,
      "ourist": 794,
      "ournal": 795,
      "▁ASC": 796,
      "▁club": 797,
      "▁film": 798,
      "olic": 799,
      "▁employee": 800,
      "▁\"P": 801,
      "ient": 802,
      "▁cities": 803,
      "_s": 804,
      "▁room": 805,
      "▁class": 806,
      "▁states": 807,
      "ypes": 808,
      "▁project": 809,
      "CEPT": 810,
      "XCEPT": 811,
      "istic": 812,
      "▁EXCEPT": 813,
      "\".\n": 814,
      "▁their": 815,
      "▁price": 816,
      "_details": 817,
      "ten": 818,
      "▁T1.f": 819,
      "▁T2.f": 820,
      "vent": 821,
      "▁dire": 822,
      "dataset": 823,
      "fer": 824,
      "ms": 825,
      "▁amount": 826,
      "keyphrasename": 827,
      "▁t4.c": 828,
      "▁\"M": 829,
      "▁t2.keyphraseid": 830,
      "struct": 831,
      "olor": 832,
      "▁player": 833,
      "ead": 834,
      "aract": 835,
      "▁man": 836,
      "▁airport": 837,
      "\"?\n": 838,
      "▁ho": 839,
      "nder": 840,
      "▁building": 841,
      "▁does": 842,
      "low": 843,
      "word": 844,
      "ountain": 845,
      "▁.\n": 846,
      "▁\"A": 847,
      "▁t2.authorid": 848,
      "aracter": 849,
      "rating": 850,
      "er_id": 851,
      "KE": 852,
      "les": 853,
      "▁t3.year": 854,
      "▁LIKE": 855,
      "ud": 856,
      "ence": 857,
      "▁T1.C": 858,
      "role": 859,
      "▁track": 860,
      "▁19": 861,
      "▁movie": 862,
      "_description": 863,
      "_num": 864,
      "ution": 865,
      "▁largest": 866,
      "▁venue": 867,
      "▁we": 868,
      "▁ship": 869,
      "av": 870,
      "yword": 871,
      "▁con": 872,
      "▁\"B": 873,
      "gh": 874,
      "riend": 875,
      "itedpaperid": 876,
      "s_": 877,
      "▁\"D": 878,
      "▁T1.customer_id": 879,
      "▁t4.paperid": 880,
      "▁publish": 881,
      "vers": 882,
      "keyword": 883,
      "alance": 884,
      "irst_name": 885,
      "▁T2.d": 886,
      "▁Document": 887,
      "ation_id": 888,
      "form": 889,
      "ines": 890,
      "raction": 891,
      "ational": 892,
      "get": 893,
      "ook": 894,
      "▁low": 895,
      "aracteristic": 896,
      "are": 897,
      "vo": 898,
      "ranch": 899,
      "▁authors": 900,
      "▁\"L": 901,
      "▁list": 902,
      "▁actor": 903,
      "▁T1.b": 904,
      "▁dorm": 905,
      "omm": 906,
      "ost": 907,
      "stu": 908,
      "mployee": 909,
      "▁team": 910,
      "fo": 911,
      "hi": 912,
      "_re": 913,
      "▁phone": 914,
      "nivers": 915,
      "▁2\n": 916,
      "fact": 917,
      "ufact": 918,
      "▁op": 919,
      "ourses": 920,
      "vis": 921,
      "▁payment": 922,
      "ountry": 923,
      "ilo": 924,
      "ervice": 925,
      "▁min(": 926,
      "▁cont": 927,
      "here": 928,
      "if": 929,
      "▁T1.A": 930,
      "▁T2.P": 931,
      "rict": 932,
      "▁company": 933,
      "▁mountain": 934,
      "▁both": 935,
      "last_name": 936,
      "venuename": 937,
      "ng": 938,
      "▁did": 939,
      "▁review": 940,
      "▁rating": 941,
      "redit": 942,
      "restaurant": 943,
      "verse": 944,
      "rou": 945,
      "led": 946,
      "▁ordered": 947,
      "▁organ": 948,
      "eight": 949,
      "▁station": 950,
      "ufactur": 951,
      "_Name": 952,
      "ph": 953,
      "arty": 954,
      "▁Person": 955,
      "▁teach": 956,
      "▁maximum": 957,
      "▁it": 958,
      "atal": 959,
      "▁ab": 960,
      "ren": 961,
      "▁t1.paperid": 962,
      "staff_id": 963,
      "atalog": 964,
      "DB": 965,
      "LDB": 966,
      "▁per": 967,
      "▁members": 968,
      "ann": 969,
      "▁\"T": 970,
      "▁description": 971,
      "▁traverse": 972,
      "▁\"H": 973,
      "icip": 974,
      "▁DESC\n": 975,
      "amen": 976,
      "▁t1.id": 977,
      "▁Customers": 978,
      "niversity": 979,
      "▁ran": 980,
      "SS": 981,
      "_e": 982,
      "ly": 983,
      "pon": 984,
      "▁tw": 985,
      "es\n": 986,
      "▁ex": 987,
      "▁players": 988,
      "▁journal": 989,
      "▁driver": 990,
      "cent": 991,
      "▁river_name": 992,
      "jor": 993,
      "▁instruct": 994,
      "▁T4.": 995,
      "cis": 996,
      "un": 997,
      "▁T1.s": 998,
      "000": 999,
      "_code\n": 1000,
      "ooking": 1001,
      "▁T2.A": 1002,
      "▁proble": 1003,
      "ced": 1004,
      "▁4": 1005,
      "uest": 1006,
      "osition": 1007,
      "ale": 1008,
      "ear": 1009,
      "xas": 1010,
      "anies": 1011,
      "▁county": 1012,
      "ign": 1013,
      "amount": 1014,
      "▁courses": 1015,
      "▁were": 1016,
      "▁Product": 1017,
      "▁job": 1018,
      "arsing": 1019,
      "▁types": 1020,
      "▁named": 1021,
      "▁t1.f": 1022,
      "up": 1023,
      "▁des": 1024,
      "rade": 1025,
      "▁t2.name": 1026,
      "▁there?\n": 1027,
      "emp": 1028,
      "ys": 1029,
      "▁role": 1030,
      "▁campus": 1031,
      "▁comm": 1032,
      "▁T2.b": 1033,
      "▁2000": 1034,
      "▁dept": 1035,
      "▁T3.c": 1036,
      "ENT": 1037,
      "▁director": 1038,
      "▁descending": 1039,
      "_E": 1040,
      "bum": 1041,
      "eck": 1042,
      "oom": 1043,
      "rap": 1044,
      "▁transaction": 1045,
      "▁name,": 1046,
      "▁t3.c": 1047,
      "▁region": 1048,
      "▁t2.city_name": 1049,
      "_Att": 1050,
      "quart": 1051,
      "eadquart": 1052,
      "▁point": 1053,
      "rollment": 1054,
      "LA": 1055,
      "ont": 1056,
      "ames": 1057,
      "▁\"b": 1058,
      "ason": 1059,
      "ompany": 1060,
      "!=": 1061,
      "_year": 1062,
      "▁!=": 1063,
      "▁\"s": 1064,
      "lev": 1065,
      "▁t1.keyphrasename": 1066,
      "ircraft": 1067,
      "abet": 1068,
      "▁used": 1069,
      "▁songs": 1070,
      "▁alph": 1071,
      "▁alphabet": 1072,
      "T1.": 1073,
      "▁aft": 1074,
      "ustid": 1075,
      "▁location": 1076,
      "▁t4.citedpaperid": 1077,
      "levation": 1078,
      "▁after": 1079,
      "atch": 1080,
      "ident": 1081,
      "▁act": 1082,
      "▁some": 1083,
      "_address": 1084,
      "co": 1085,
      "ose": 1086,
      "▁For": 1087,
      "▁T2.s": 1088,
      "▁t1.rating": 1089,
      "▁invo": 1090,
      "▁sh": 1091,
      "ination": 1092,
      "▁T1.P": 1093,
      "▁10": 1094,
      "▁T2.customer_id": 1095,
      "▁lowest": 1096,
      "ilot": 1097,
      "▁time": 1098,
      "▁\"N": 1099,
      "▁dates": 1100,
      "▁2015": 1101,
      "▁open": 1102,
      "restaurant_id": 1103,
      "ysician": 1104,
      "GT": 1105,
      "_R": 1106,
      "ning": 1107,
      "▁one": 1108,
      "▁category": 1109,
      "▁status": 1110,
      "▁'A": 1111,
      "▁confer": 1112,
      "lim": 1113,
      "▁mus": 1114,
      "hod": 1115,
      "▁1;\n": 1116,
      "▁med": 1117,
      "ems": 1118,
      "olicy": 1119,
      "RA": 1120,
      "mail": 1121,
      "rs": 1122,
      "ang": 1123,
      "ofess": 1124,
      "_count": 1125,
      "▁city_name": 1126,
      "li": 1127,
      "▁Te": 1128,
      "▁ass": 1129,
      "ital": 1130,
      "▁T2.Name": 1131,
      "des": 1132,
      "ler": 1133,
      "▁business": 1134,
      "▁LEN": 1135,
      "etition": 1136,
      "▁StuID": 1137,
      "riverid": 1138,
      "dept_code": 1139,
      "GTH": 1140,
      "▁LENGTH": 1141,
      "irth": 1142,
      "_Code": 1143,
      "▁gender": 1144,
      "▁In": 1145,
      "dvis": 1146,
      "pen": 1147,
      "▁was": 1148,
      "▁where": 1149,
      "loc": 1150,
      "▁ne": 1151,
      "▁train": 1152,
      "▁3\n": 1153,
      "gist": 1154,
      "ull": 1155,
      "▁aff": 1156,
      "ate\n": 1157,
      "▁t1.aid": 1158,
      "▁sm": 1159,
      "_to": 1160,
      "rancis": 1161,
      "▁rank": 1162,
      "rancisco": 1163,
      "VLDB": 1164,
      "ross": 1165,
      "_status": 1166,
      "▁ascending": 1167,
      "_Type": 1168,
      "datasetid": 1169,
      "ath": 1170,
      "▁t3.venueid": 1171,
      "▁check": 1172,
      "ission": 1173,
      "LASS": 1174,
      "pr": 1175,
      "ram": 1176,
      "acity": 1177,
      "respon": 1178,
      "hou": 1179,
      "ric": 1180,
      "▁cor": 1181,
      "▁T3.name": 1182,
      "▁gre": 1183,
      "▁highlow": 1184,
      "ationality": 1185,
      "▁organiz": 1186,
      "▁two": 1187,
      "▁T1.S": 1188,
      "▁t1.business_id": 1189,
      "artist": 1190,
      "▁had": 1191,
      "stuid": 1192,
      "▁correspon": 1193,
      "ia": 1194,
      "ial": 1195,
      "▁ac": 1196,
      "lection": 1197,
      "ood_type": 1198,
      "▁t1.food_type": 1199,
      "▁ta": 1200,
      "▁ST": 1201,
      "▁claim": 1202,
      "▁college": 1203,
      "▁start": 1204,
      "▁CLASS": 1205,
      "_city": 1206,
      "_Attraction": 1207,
      "thod": 1208,
      "ature": 1209,
      "oun": 1210,
      "se_number": 1211,
      "▁sub": 1212,
      "olution": 1213,
      "▁details": 1214,
      "▁first_name": 1215,
      "▁Ref": 1216,
      "house_number": 1217,
      "Tourist": 1218,
      "ai": 1219,
      "▁\"U": 1220,
      "lease": 1221,
      "vest": 1222,
      "tend": 1223,
      "_by": 1224,
      "▁contain": 1225,
      "hic": 1226,
      "light": 1227,
      "ank": 1228,
      "ded": 1229,
      "chool": 1230,
      "dget": 1231,
      "lname": 1232,
      "▁Apartment": 1233,
      "▁budget": 1234,
      "▁races": 1235,
      "▁manufactur": 1236,
      "ire": 1237,
      "order_id": 1238,
      "▁major": 1239,
      "orks": 1240,
      "▁ASC\n": 1241,
      "od": 1242,
      "ater": 1243,
      "atab": 1244,
      "ustomer_name": 1245,
      "layer": 1246,
      "aving": 1247,
      "-0": 1248,
      "▁card": 1249,
      "ark": 1250,
      "▁\"R": 1251,
      "▁ent": 1252,
      "▁profess": 1253,
      "▁documents": 1254,
      "_info": 1255,
      "▁border_info": 1256,
      "mid": 1257,
      "vies": 1258,
      "zip": 1259,
      "▁K": 1260,
      "▁T2.id": 1261,
      "▁market": 1262,
      "▁faculty": 1263,
      "0000": 1264,
      "▁alphabetical": 1265,
      "organ": 1266,
      "▁catalog": 1267,
      "▁T2.C": 1268,
      "▁\"F": 1269,
      "▁codes": 1270,
      "ourse_id": 1271,
      "rice)": 1272,
      "StuID": 1273,
      "mID": 1274,
      "▁t2.restaurant_id": 1275,
      "ries": 1276,
      "▁DESC;\n": 1277,
      "▁companies": 1278,
      "▁classroom": 1279,
      "PE": 1280,
      "way": 1281,
      "▁try": 1282,
      "▁\"J": 1283,
      "▁t3.pid": 1284,
      "▁Project": 1285,
      "▁made": 1286,
      "▁2010": 1287,
      "▁minimum": 1288,
      "come": 1289,
      "ges": 1290,
      "▁8": 1291,
      "ator": 1292,
      "▁'C": 1293,
      "_detail": 1294,
      "▁published": 1295,
      "hib": 1296,
      "annel": 1297,
      "a\n": 1298,
      "yme": 1299,
      "zyme": 1300,
      "▁top": 1301,
      "▁they": 1302,
      "ond": 1303,
      "▁email": 1304,
      "estiv": 1305,
      "estival": 1306,
      "_S": 1307,
      "▁position": 1308,
      "region": 1309,
      "▁Jag": 1310,
      "▁T2.st": 1311,
      "▁t2.venueid": 1312,
      "adish": 1313,
      "▁V.": 1314,
      "▁tryout": 1315,
      "▁Jagadish": 1316,
      "T2.": 1317,
      "UM": 1318,
      "_g": 1319,
      "a\"": 1320,
      "mith": 1321,
      "▁Age": 1322,
      "▁book": 1323,
      "▁inst": 1324,
      "▁t4.authorid": 1325,
      "▁conference": 1326,
      "ld": 1327,
      "▁tit": 1328,
      "▁Faculty": 1329,
      "▁Comp": 1330,
      "ongid": 1331,
      "dvisor": 1332,
      "▁titles": 1333,
      "▁keyword": 1334,
      "▁person": 1335,
      "▁sort": 1336,
      "▁saving": 1337,
      "llergy": 1338,
      "own": 1339,
      "outcome": 1340,
      "▁result": 1341,
      "ientist": 1342,
      "▁airports": 1343,
      "igned": 1344,
      "ove": 1345,
      "ym": 1346,
      "▁tri": 1347,
      "▁branch": 1348,
      "ormid": 1349,
      "lubid": 1350,
      "andid": 1351,
      "address_id": 1352,
      "_elevation": 1353,
      "▁STU": 1354,
      "tendance": 1355,
      "ovie": 1356,
      "▁order.\n": 1357,
      "eople_ID": 1358,
      "angu": 1359,
      "did": 1360,
      "hone": 1361,
      "▁acc": 1362,
      "department": 1363,
      "▁election": 1364,
      "etw": 1365,
      "▁movies": 1366,
      "ass": 1367,
      "▁orders": 1368,
      "▁enrollment": 1369,
      "▁capital": 1370,
      "msid": 1371,
      "▁tracks": 1372,
      "▁checking": 1373,
      "▁corresponding": 1374,
      "▁zip": 1375,
      "an\"": 1376,
      "▁MIN": 1377,
      "▁accounts": 1378,
      "ep": 1379,
      "fore": 1380,
      "jid": 1381,
      "▁store": 1382,
      "▁Room": 1383,
      "am_id": 1384,
      "acID": 1385,
      "▁written": 1386,
      "▁trip": 1387,
      "OR": 1388,
      "YPE": 1389,
      "kid": 1390,
      "ual": 1391,
      "▁app": 1392,
      "▁dens": 1393,
      "urch": 1394,
      "▁t4.pid": 1395,
      "▁less": 1396,
      "▁aircraft": 1397,
      "ee": 1398,
      "upp": 1399,
      "▁apartment": 1400,
      "▁match": 1401,
      "season": 1402,
      "log": 1403,
      "characteristic": 1404,
      "▁Rating": 1405,
      "adi": 1406,
      "▁departments": 1407,
      "▁album": 1408,
      "▁Documents": 1409,
      "hibition": 1410,
      "▁density": 1411,
      "▁ol": 1412,
      "atest": 1413,
      "▁headquart": 1414,
      "_club": 1415,
      "age)": 1416,
      "acc": 1417,
      "▁higher": 1418,
      "▁physician": 1419,
      "▁instructor": 1420,
      "▁7": 1421,
      "er_": 1422,
      "ide": 1423,
      "▁credit": 1424,
      "ities": 1425,
      "▁prod": 1426,
      "▁pilot": 1427,
      "▁T1.Name": 1428,
      "apt": 1429,
      "▁t2.house_number": 1430,
      "uration": 1431,
      "▁addresses": 1432,
      "_Det": 1433,
      "▁dept_name": 1434,
      "▁produ": 1435,
      "-2": 1436,
      "▁9": 1437,
      "▁Who": 1438,
      "rest": 1439,
      "olu": 1440,
      "▁Movie": 1441,
      "▁particip": 1442,
      "▁locations": 1443,
      "aila": 1444,
      "_order": 1445,
      "_amount": 1446,
      "nast": 1447,
      "nician": 1448,
      "▁TYPE": 1449,
      "ustry": 1450,
      "▁t3.authorid": 1451,
      "▁t3.title": 1452,
      "chnician": 1453,
      "odel": 1454,
      "▁Res": 1455,
      "▁Staff": 1456,
      "ervices": 1457,
      "olicies": 1458,
      "ymnast": 1459,
      "uppli": 1460,
      "DENT": 1461,
      "_me": 1462,
      "cord": 1463,
      "tain": 1464,
      "▁Or": 1465,
      "▁T1.M": 1466,
      "▁\"f": 1467,
      "▁francisco": 1468,
      "▁balance": 1469,
      "▁t2.business_id": 1470,
      "▁15": 1471,
      "▁last_name": 1472,
      "▁host": 1473,
      "▁drivers": 1474,
      "▁savings": 1475,
      "▁STUDENT": 1476,
      "ew": 1477,
      "nre": 1478,
      "ute": 1479,
      "atient": 1480,
      "▁name.\n": 1481,
      "isit": 1482,
      "team_id": 1483,
      "artist_name": 1484,
      "_details\n": 1485,
      "_Detail": 1486,
      "io": 1487,
      "▁Account": 1488,
      "▁parsing": 1489,
      "icine": 1490,
      "rol": 1491,
      "▁birth": 1492,
      "▁countries": 1493,
      "istrict": 1494,
      "rib": 1495,
      "ock": 1496,
      "ett": 1497,
      "▁cite": 1498,
      "▁district": 1499,
      "▁home": 1500,
      "▁problems": 1501,
      "%\"\n": 1502,
      "5;\n": 1503,
      "SIT": 1504,
      "WE": 1505,
      "_G": 1506,
      "_M": 1507,
      "_it": 1508,
      "ah": 1509,
      "ex": 1510,
      "type": 1511,
      "uilding": 1512,
      "▁WIN": 1513,
      "▁name\n": 1514,
      "alle": 1515,
      "ed_by": 1516,
      "▁18": 1517,
      "product_name": 1518,
      "vestor": 1519,
      "▁WINE": 1520,
      "_B": 1521,
      "over": 1522,
      "▁policy": 1523,
      "rep": 1524,
      "▁customer_id": 1525,
      "▁att": 1526,
      "ages": 1527,
      "▁been": 1528,
      "▁organization": 1529,
      "▁sorted": 1530,
      "1\n": 1531,
      "ET": 1532,
      "mission": 1533,
      "▁throu": 1534,
      "▁Address": 1535,
      "anc": 1536,
      "▁event": 1537,
      "▁loan": 1538,
      "Id\n": 1539,
      "▁captain": 1540,
      "▁through": 1541,
      "eur": 1542,
      "gre": 1543,
      "▁6": 1544,
      "▁y": 1545,
      "▁candid": 1546,
      "▁'M": 1547,
      "udent_id": 1548,
      "▁T1.city": 1549,
      "▁Country": 1550,
      "▁Name\n": 1551,
      "▁above": 1552,
      "▁common": 1553,
      "organis": 1554,
      "olume": 1555,
      "allest": 1556,
      "land": 1557,
      "s,": 1558,
      "▁T1.F": 1559,
      "lement": 1560,
      "hot": 1561,
      "▁ind": 1562,
      "▁shop": 1563,
      "▁Ch": 1564,
      "_ch": 1565,
      "▁'P": 1566,
      "▁have?\n": 1567,
      "▁2016": 1568,
      "▁t1.customer_id": 1569,
      "emale": 1570,
      "_first_name": 1571,
      "▁before": 1572,
      "roject_id": 1573,
      "reneur": 1574,
      "pring": 1575,
      "atabase": 1576,
      "repreneur": 1577,
      "▁2.": 1578,
      "▁la": 1579,
      "er\n": 1580,
      "itution": 1581,
      "▁\"%": 1582,
      "▁dataset": 1583,
      "▁full": 1584,
      "▁t3.aid": 1585,
      "▁'S": 1586,
      "ocal": 1587,
      "▁good": 1588,
      "▁competition": 1589,
      "ategory_name": 1590,
      "▁campuses": 1591,
      "▁entrepreneur": 1592,
      "_last_name": 1593,
      "eed": 1594,
      "employee": 1595,
      "rof": 1596,
      "ward": 1597,
      "▁*": 1598,
      "ina": 1599,
      "▁T2.H": 1600,
      "set": 1601,
      "alue": 1602,
      "▁t2.st": 1603,
      "laint": 1604,
      "ocation": 1605,
      "▁t2.customer_id": 1606,
      "dept_name": 1607,
      "rs_code": 1608,
      "ailable": 1609,
      "_ap": 1610,
      "nited": 1611,
      "▁\"c": 1612,
      "▁storm": 1613,
      "_pro": 1614,
      "id\n": 1615,
      "▁BET": 1616,
      "▁t4.venueid": 1617,
      "▁University": 1618,
      "▁about": 1619,
      "adium": 1620,
      "WEEN": 1621,
      "▁BETWEEN": 1622,
      "'?\n": 1623,
      "een": 1624,
      "i\"": 1625,
      "ative": 1626,
      "▁wines": 1627,
      "▁\"G": 1628,
      "▁bank": 1629,
      "▁betw": 1630,
      "▁scientist": 1631,
      "▁vocal": 1632,
      "▁capacity": 1633,
      "roup": 1634,
      "orkshop": 1635,
      "▁between": 1636,
      "he": 1637,
      "▁Al": 1638,
      "▁An": 1639,
      "rack": 1640,
      "▁'B": 1641,
      "▁game": 1642,
      "▁T1.driverid": 1643,
      "▁rooms": 1644,
      "▁199": 1645,
      "rench": 1646,
      "▁smallest": 1647,
      "_Type_Code": 1648,
      "▁manufacturers": 1649,
      "_St": 1650,
      "yst": 1651,
      "▁T1.year": 1652,
      "▁flight": 1653,
      "▁bed": 1654,
      "▁height": 1655,
      "▁College": 1656,
      "▁recent": 1657,
      "▁liv": 1658,
      "▁T2.customer": 1659,
      "▁score": 1660,
      "antity": 1661,
      "▁manag": 1662,
      "ght": 1663,
      "▁2.5;\n": 1664,
      "cor": 1665,
      "gram": 1666,
      "▁oth": 1667,
      "ert": 1668,
      "erature": 1669,
      "▁color": 1670,
      "iting": 1671,
      "▁off": 1672,
      "▁\"E": 1673,
      "alt": 1674,
      "▁t3.name": 1675,
      "very": 1676,
      "▁names.\n": 1677,
      "user_id": 1678,
      "▁technician": 1679,
      "outes": 1680,
      "▁invoices": 1681,
      "ACT": 1682,
      "Friend": 1683,
      "_h": 1684,
      "ault": 1685,
      "istory": 1686,
      "igin": 1687,
      "▁grade": 1688,
      "▁origin": 1689,
      "▁race": 1690,
      "▁direct": 1691,
      "▁assigned": 1692,
      "Type": 1693,
      "_amen": 1694,
      "pa": 1695,
      "ware": 1696,
      "_cont": 1697,
      "00\n": 1698,
      "▁Party": 1699,
      "▁'%": 1700,
      "lastname": 1701,
      "▁routes": 1702,
      "▁department_id": 1703,
      "▁complaint": 1704,
      "allergy": 1705,
      "▁volume": 1706,
      "ize": 1707,
      "▁exhibition": 1708,
      "raphic": 1709,
      "gister": 1710,
      "Tourist_Attraction": 1711,
      "▁professor": 1712,
      "_method": 1713,
      "_amenity": 1714,
      "')\n": 1715,
      "NION": 1716,
      "▁T2.S": 1717,
      "row": 1718,
      "▁star": 1719,
      "▁t2.year": 1720,
      "ures": 1721,
      "▁channel": 1722,
      "▁sex": 1723,
      "▁UNION": 1724,
      "▁user": 1725,
      "▁medicine": 1726,
      "ise": 1727,
      "iated": 1728,
      "list": 1729,
      "oh": 1730,
      "oot": 1731,
      "peed": 1732,
      "itor": 1733,
      "▁T1.StuID": 1734,
      "▁T2.t": 1735,
      "▁t1.st": 1736,
      "las": 1737,
      "▁live": 1738,
      "▁T1.custid": 1739,
      "elation": 1740,
      "▁t1.city_name": 1741,
      "▁located": 1742,
      "▁artists": 1743,
      "▁teachers": 1744,
      "emp_num": 1745,
      "_items": 1746,
      "itingpaperid": 1747,
      "%'\n": 1748,
      "af": 1749,
      "oll": 1750,
      "ship": 1751,
      "▁t6": 1752,
      "med": 1753,
      "▁TRA": 1754,
      "ite": 1755,
      "▁T1.G": 1756,
      "▁wrest": 1757,
      "▁booking": 1758,
      "_category": 1759,
      "▁no": 1760,
      "otes": 1761,
      "▁Mich": 1762,
      "▁t4.venuename": 1763,
      "▁enzyme": 1764,
      "illion": 1765,
      "▁PersonFriend": 1766,
      "▁Team": 1767,
      "auth": 1768,
      "i_id": 1769,
      "▁\"te": 1770,
      "alif": 1771,
      "▁friend": 1772,
      "_transaction": 1773,
      "entry": 1774,
      "strument": 1775,
      "▁projects": 1776,
      "▁problem": 1777,
      "uestion": 1778,
      "▁Rooms": 1779,
      "▁produced": 1780,
      "authid": 1781,
      "▁\"texas": 1782,
      "_entry": 1783,
      "s)": 1784,
      "idual": 1785,
      "▁Smith": 1786,
      "▁t2.datasetid": 1787,
      "▁gymnast": 1788,
      "▁document_type_code": 1789,
      "ividual": 1790,
      "udget": 1791,
      "In": 1792,
      "man": 1793,
      "rID": 1794,
      "salary": 1795,
      "inst": 1796,
      "▁T2.D": 1797,
      "▁t1.venueid": 1798,
      "vel": 1799,
      "▁t2.venuename": 1800,
      "▁show": 1801,
      "geles": 1802,
      "iles": 1803,
      "▁allergy": 1804,
      "▁State": 1805,
      "ports": 1806,
      "▁avg(T1.": 1807,
      "_fname": 1808,
      "lassroom": 1809,
      "▁T1.stu": 1810,
      "▁institution": 1811,
      "▁Angeles": 1812,
      "Tourist_Attraction_ID": 1813,
      "salary)": 1814,
      "▁T1.D": 1815,
      "▁T2.M": 1816,
      "ales": 1817,
      "▁food": 1818,
      "▁record": 1819,
      "▁Player": 1820,
      "▁log": 1821,
      "ected": 1822,
      "▁payment_method": 1823,
      "▁invoice": 1824,
      "▁greater": 1825,
      "IC": 1826,
      "_N": 1827,
      "wer": 1828,
      "▁Z": 1829,
      "ster": 1830,
      "▁Allergy": 1831,
      "▁clim": 1832,
      "arning": 1833,
      "▁\"w": 1834,
      "▁stadium": 1835,
      "▁t1.year": 1836,
      "ved": 1837,
      "party": 1838,
      "eld": 1839,
      "▁t1.customer_name": 1840,
      "resent": 1841,
      "_date\n": 1842,
      "▁its": 1843,
      "▁instructors": 1844,
      "_status_code": 1845,
      "_r": 1846,
      "_le": 1847,
      "▁advisor": 1848,
      "▁colle": 1849,
      "ounty": 1850,
      "▁find": 1851,
      "▁end": 1852,
      "▁detail": 1853,
      "▁langu": 1854,
      "▁give": 1855,
      "_price": 1856,
      "_of_": 1857,
      "▁highest_elevation": 1858,
      "formance": 1859,
      "location": 1860,
      "ounded": 1861,
      "0.\n": 1862,
      "OM": 1863,
      "PS": 1864,
      "hen": 1865,
      "ince": 1866,
      "▁can": 1867,
      "▁T1.mID": 1868,
      "▁t2.aid": 1869,
      "▁hours": 1870,
      "▁T3.id": 1871,
      "▁citations": 1872,
      "▁parties": 1873,
      "amenid": 1874,
      "pens": 1875,
      "▁submission": 1876,
      "EC": 1877,
      "ping": 1878,
      "uck": 1879,
      "ern": 1880,
      "attendance": 1881,
      "▁patient": 1882,
      "▁T2.title": 1883,
      "▁stations": 1884,
      "▁bel": 1885,
      "ID\n": 1886,
      "▁T3.d": 1887,
      "irstname": 1888,
      "_publ": 1889,
      "_station": 1890,
      "▁musical": 1891,
      "▁affil": 1892,
      "▁affected": 1893,
      "▁belong": 1894,
      "E\n": 1895,
      "Question": 1896,
      "kes": 1897,
      "▁ame": 1898,
      "ores": 1899,
      "itude": 1900,
      "▁\"m": 1901,
      "race": 1902,
      "▁t2.title": 1903,
      "▁t3.characteristic": 1904,
      "▁names,": 1905,
      "rand": 1906,
      "▁years": 1907,
      "ppelation": 1908,
      "formation": 1909,
      "earch": 1910,
      "▁activ": 1911,
      "▁greatest": 1912,
      "raceid": 1913,
      "5\n": 1914,
      "_w": 1915,
      "ball": 1916,
      "ger": 1917,
      "lines": 1918,
      "▁those": 1919,
      "▁Fin": 1920,
      "▁festival": 1921,
      "ither": 1922,
      "▁paperdataset": 1923,
      "▁dest": 1924,
      "▁'F": 1925,
      "▁form": 1926,
      "▁games": 1927,
      "▁buil": 1928,
      "▁5\n": 1929,
      "_Re": 1930,
      "▁colleges": 1931,
      "'.\n": 1932,
      "CL": 1933,
      "lat": 1934,
      "oid": 1935,
      "▁Aircraft": 1936,
      "orking": 1937,
      "ons": 1938,
      "itation": 1939,
      "▁T1.title": 1940,
      "▁female": 1941,
      "_point": 1942,
      "▁2014": 1943,
      "▁genre": 1944,
      "▁US": 1945,
      "ographic": 1946,
      "olor_code": 1947,
      "department_id": 1948,
      "▁match_": 1949,
      "_orders": 1950,
      "wering": 1951,
      "'s": 1952,
      "Year": 1953,
      "ruct": 1954,
      "ino": 1955,
      "orni": 1956,
      "ongest": 1957,
      "▁Date": 1958,
      "▁t2.s": 1959,
      "▁services": 1960,
      "▁Claim": 1961,
      "▁either": 1962,
      "▁nationality": 1963,
      "▁customer_orders": 1964,
      "oming": 1965,
      "▁Ma": 1966,
      "▁longest": 1967,
      "ported": 1968,
      "IONS": 1969,
      "▁but": 1970,
      "_type_code\n": 1971,
      "ttlement": 1972,
      "▁below": 1973,
      "udio": 1974,
      "▁198": 1975,
      "VLDB\"": 1976,
      "▁results": 1977,
      "urchase": 1978,
      "account": 1979,
      "ribute": 1980,
      "▁candidate": 1981,
      "aliforni": 1982,
      "Or": 1983,
      "core": 1984,
      "play": 1985,
      "y\n": 1986,
      "▁Tourist": 1987,
      "eraction": 1988,
      "▁SUM": 1989,
      "ins": 1990,
      "ances": 1991,
      "▁T1.R": 1992,
      "▁\"n": 1993,
      "▁duration": 1994,
      "▁t1.p": 1995,
      "▁instrument": 1996,
      "000\n": 1997,
      "old": 1998,
      "▁dev": 1999,
      "▁numbers": 2000,
      "eter": 2001,
      "▁student_c": 2002,
      "ipp": 2003,
      "_phone": 2004,
      "▁learning": 2005,
      "quantity": 2006,
      "▁geographic": 2007,
      "laim_id": 2008,
      "▁T1.first_name": 2009,
      "ranch_id": 2010,
      "▁role_code": 2011,
      "▁Apartments": 2012,
      "▁Accounts": 2013,
      "▁scientists": 2014,
      "▁match_season": 2015,
      "journal": 2016,
      "to": 2017,
      "ntal": 2018,
      "▁T1.t": 2019,
      "▁\"W": 2020,
      "▁counties": 2021,
      "▁12": 2022,
      "▁)\n": 2023,
      "▁id\n": 2024,
      "▁Employe": 2025,
      "▁texas": 2026,
      "▁rivers": 2027,
      "▁t2.category_name": 2028,
      "▁played": 2029,
      "▁30": 2030,
      "_from": 2031,
      "▁seme": 2032,
      "▁schools": 2033,
      "▁membership": 2034,
      "▁\"san": 2035,
      "ideo": 2036,
      "▁Order": 2037,
      "IPS": 2038,
      "ember": 2039,
      "nit": 2040,
      "▁cName": 2041,
      "▁T2.staff_id": 2042,
      "ate_name": 2043,
      "▁service": 2044,
      "ust_id": 2045,
      "▁CA": 2046,
      "ments": 2047,
      "▁H.": 2048,
      "▁state\n": 2049,
      "ote": 2050,
      "▁order_items": 2051,
      "▁T2.course_id": 2052,
      "▁2009": 2053,
      "lass_code": 2054,
      "▁course_id": 2055,
      "illing": 2056,
      "▁t5.pid": 2057,
      "ississ": 2058,
      "▁resolution": 2059,
      "▁\"H.": 2060,
      "▁never": 2061,
      "▁other": 2062,
      "ississipp": 2063,
      "19": 2064,
      "lish": 2065,
      "yc": 2066,
      "▁view": 2067,
      "inem": 2068,
      "arri": 2069,
      "▁T2.year": 2070,
      "ic\"": 2071,
      "▁day": 2072,
      "▁t1.product_id": 2073,
      "▁information": 2074,
      "_comp": 2075,
      "lock": 2076,
      "celer": 2077,
      "▁PO": 2078,
      "▁'H": 2079,
      "▁Mer": 2080,
      "iel": 2081,
      "▁id,": 2082,
      "aller": 2083,
      "▁characteristic": 2084,
      "andm": 2085,
      "_of_club": 2086,
      "▁users": 2087,
      "▁T1.student_id": 2088,
      "▁T1.date": 2089,
      "▁T2.People_ID": 2090,
      "▁music": 2091,
      "▁Addresses": 2092,
      "grees": 2093,
      "rows": 2094,
      "11": 2095,
      "balance": 2096,
      "▁apt": 2097,
      "▁T1.team_id": 2098,
      "▁T1.artist_name": 2099,
      "▁T1.employee": 2100,
      "seng": 2101,
      "leg": 2102,
      "▁t1.keyword": 2103,
      "▁big": 2104,
      "ust_name": 2105,
      "▁revenue": 2106,
      "asseng": 2107,
      "orm_id": 2108,
      "▁available": 2109,
      "▁t2.clubid": 2110,
      "lubname": 2111,
      "▁t1.clubid": 2112,
      "▁t1.clubname": 2113,
      "▁member_of_club": 2114,
      "▁university": 2115,
      "▁votes": 2116,
      "tens": 2117,
      "▁buildings": 2118,
      "▁authorship": 2119,
      "gistr": 2120,
      "irector": 2121,
      "▁albums": 2122,
      "▁francisco\"": 2123,
      "instid": 2124,
      "▁climber": 2125,
      "▁CAST": 2126,
      "▁Mertens": 2127,
      "assengers": 2128,
      "_V": 2129,
      "a\";\n": 2130,
      "town": 2131,
      "▁Fname": 2132,
      "ories": 2133,
      "▁pla": 2134,
      "rab": 2135,
      "▁base": 2136,
      "▁De": 2137,
      "▁every": 2138,
      "▁gas": 2139,
      "▁order?\n": 2140,
      "▁Nationality": 2141,
      "▁prices": 2142,
      "roller": 2143,
      "upport": 2144,
      "rape": 2145,
      "limination": 2146,
      "rican": 2147,
      "▁headquarters": 2148,
      "▁semester": 2149,
      "andmate": 2150,
      "AM": 2151,
      "MP": 2152,
      "Price)": 2153,
      "UL": 2154,
      "VG": 2155,
      "ile": 2156,
      "less": 2157,
      "oy": 2158,
      "rist": 2159,
      "ught": 2160,
      "▁Ans": 2161,
      "▁AVG": 2162,
      "es?\n": 2163,
      "ree": 2164,
      "▁T1.staff_id": 2165,
      "▁T1.dept_code": 2166,
      "▁T2.act": 2167,
      "▁T2.product_id": 2168,
      "▁T2.mID": 2169,
      "▁T2.lastname": 2170,
      "▁Bar": 2171,
      "▁t2.stuid": 2172,
      "▁t3.stuid": 2173,
      "ily": 2174,
      "▁customer_id\n": 2175,
      "▁product_id": 2176,
      "▁T1.customer": 2177,
      "layer_id": 2178,
      "▁Employee": 2179,
      "▁proced": 2180,
      "▁temp": 2181,
      "▁area\"": 2182,
      "▁T1.state": 2183,
      "antic": 2184,
      "▁T2.friend": 2185,
      "▁T2.first_name": 2186,
      "▁T2.balance": 2187,
      "▁taught": 2188,
      "ORD": 2189,
      "apt_id": 2190,
      "rolment": 2191,
      "▁attraction": 2192,
      "▁vocals": 2193,
      "▁Michig": 2194,
      "_rate": 2195,
      "▁Employees": 2196,
      "▁texas\n": 2197,
      "▁Answering": 2198,
      "_F": 2199,
      "pet": 2200,
      "present": 2201,
      "vince": 2202,
      "▁arab": 2203,
      "itte": 2204,
      "arab": 2205,
      "▁T2.W": 2206,
      "▁\"K": 2207,
      "▁\"arab": 2208,
      "ick": 2209,
      "apacity": 2210,
      "▁dis": 2211,
      "▁fam": 2212,
      "▁founded": 2213,
      "▁inc": 2214,
      "▁held": 2215,
      "chan": 2216,
      "▁Has": 2217,
      "ource": 2218,
      "▁method": 2219,
      "▁students.\n": 2220,
      "▁cost": 2221,
      "▁States": 2222,
      "▁organis": 2223,
      "▁t6.": 2224,
      "petr": 2225,
      "▁arabic": 2226,
      "▁\"arabic\"": 2227,
      "Pos": 2228,
      "eet": 2229,
      "gine": 2230,
      "i\";\n": 2231,
      "xt": 2232,
      "member": 2233,
      "▁three": 2234,
      "▁As": 2235,
      "icial": 2236,
      "roy": 2237,
      "▁t2.product_id": 2238,
      "▁t2.region": 2239,
      "ation_type": 2240,
      "_card": 2241,
      "ed\n": 2242,
      "irc": 2243,
      "▁city_code": 2244,
      "ore_id": 2245,
      "ongId": 2246,
      "▁run": 2247,
      "▁T2.custid": 2248,
      "urnit": 2249,
      "_start": 2250,
      "▁50": 2251,
      "_Types": 2252,
      "▁T2.dormid": 2253,
      "▁actors": 2254,
      "▁perpetr": 2255,
      "▁t3.citedpaperid": 2256,
      "▁opened": 2257,
      "▁across": 2258,
      "▁Apartment_B": 2259,
      "ody": 2260,
      "_Details\n": 2261,
      "SITION": 2262,
      "▁POSITION": 2263,
      "_v": 2264,
      "_ass": 2265,
      "aurant": 2266,
      "code": 2267,
      "ditor": 2268,
      "que": 2269,
      "▁k": 2270,
      "mer": 2271,
      "▁ar": 2272,
      "▁Song": 2273,
      "▁Sports": 2274,
      "▁policies": 2275,
      "▁far": 2276,
      "▁billing": 2277,
      "▁t2.authorname": 2278,
      "▁Location": 2279,
      "ken": 2280,
      "▁ref": 2281,
      "▁Part": 2282,
      "▁Please": 2283,
      "omination": 2284,
      "▁T1.course_id": 2285,
      "estaurant": 2286,
      "▁t2.cid": 2287,
      "▁distance": 2288,
      "▁year\n": 2289,
      "▁<=": 2290,
      "▁settlement": 2291,
      "▁\"Ch": 2292,
      "▁lower": 2293,
      "▁Products": 2294,
      "ancial": 2295,
      "_province": 2296,
      "▁living": 2297,
      "ertif": 2298,
      "▁Tourist_Attraction": 2299,
      "celerator": 2300,
      "▁temperature": 2301,
      "_H": 2302,
      "_log": 2303,
      "ade": 2304,
      "bian": 2305,
      "cond": 2306,
      "yoming": 2307,
      "▁ID": 2308,
      "▁tourist": 2309,
      "att": 2310,
      "▁cinem": 2311,
      "▁T1.T": 2312,
      "▁T1.last_name": 2313,
      "▁T2.G": 2314,
      "▁\"\n": 2315,
      "▁\"p": 2316,
      "ications": 2317,
      "▁suppli": 2318,
      "▁10\n": 2319,
      "irport": 2320,
      "▁t4.aid": 2321,
      "▁long": 2322,
      "▁Status": 2323,
      "ING_R": 2324,
      "▁prere": 2325,
      "rtw": 2326,
      "▁VOT": 2327,
      "_number\n": 2328,
      "▁1000": 2329,
      "_Date": 2330,
      "▁T1.County": 2331,
      "▁T2.driverid": 2332,
      "ompany_id": 2333,
      "ather": 2334,
      "chool_id": 2335,
      "ECORD": 2336,
      "ULT": 2337,
      "▁Barbian": 2338,
      "ING_RECORD": 2339,
      "▁VOTING_RECORD": 2340,
      "\")\n": 2341,
      "20": 2342,
      "S\n": 2343,
      "document": 2344,
      "volution": 2345,
      "ata": 2346,
      "▁post": 2347,
      "▁word": 2348,
      "▁T2.E": 2349,
      "sex": 2350,
      "▁syst": 2351,
      "▁hire": 2352,
      "▁CH": 2353,
      "▁rece": 2354,
      "▁release": 2355,
      "enre": 2356,
      "▁PVLDB": 2357,
      "▁'T": 2358,
      "▁students?\n": 2359,
      "▁program": 2360,
      "▁playlist": 2361,
      "▁2012": 2362,
      "▁ships": 2363,
      "▁times": 2364,
      "_count)": 2365,
      "▁contains": 2366,
      "▁headquarter": 2367,
      "▁\"french": 2368,
      "inois": 2369,
      "▁student_course": 2370,
      "▁procedures": 2371,
      "away": 2372,
      "ders": 2373,
      "hysician": 2374,
      "mi": 2375,
      "uke": 2376,
      "wim": 2377,
      "info": 2378,
      "ones": 2379,
      "reen": 2380,
      "ous": 2381,
      "aness": 2382,
      "▁T1.re": 2383,
      "▁T2.R": 2384,
      "▁\"ch": 2385,
      "road": 2386,
      "▁don": 2387,
      "▁database": 2388,
      "▁int": 2389,
      "▁san": 2390,
      "ther": 2391,
      "_customer": 2392,
      "▁register": 2393,
      "▁'s": 2394,
      "ask": 2395,
      "▁main": 2396,
      "ates_in": 2397,
      "▁population\n": 2398,
      "able": 2399,
      "▁airlines": 2400,
      "_off": 2401,
      "blem": 2402,
      "ilm_id": 2403,
      "illinois": 2404,
      "imed": 2405,
      "arketing": 2406,
      "▁\"San": 2407,
      "▁T1.bandmate": 2408,
      "oston": 2409,
      "▁T2.Party": 2410,
      "▁assoc": 2411,
      "_amount)": 2412,
      "_Details": 2413,
      "organisation_id": 2414,
      "_category_code": 2415,
      "▁\"texas\";\n": 2416,
      "▁Financial": 2417,
      "▁Sportsinfo": 2418,
      "awayn": 2419,
      "RS": 2420,
      "_keyword": 2421,
      "oah": 2422,
      "itect": 2423,
      "▁T1.g": 2424,
      "▁\"O": 2425,
      "host": 2426,
      "▁stock": 2427,
      "▁size": 2428,
      "▁CV": 2429,
      "riv": 2430,
      "chitect": 2431,
      "▁T3.P": 2432,
      "▁Red": 2433,
      "ield": 2434,
      "▁T1.customer_name": 2435,
      "▁2002": 2436,
      "escrib": 2437,
      "kings": 2438,
      "▁asset": 2439,
      "▁usa\n": 2440,
      "▁T1.Aircraft": 2441,
      "▁professors": 2442,
      "ondon": 2443,
      "_characteristic": 2444,
      "afet": 2445,
      "▁destination": 2446,
      "▁associated": 2447,
      "ISIT": 2448,
      "NS": 2449,
      "_allergy": 2450,
      "eb": 2451,
      "field": 2452,
      "hours": 2453,
      "line": 2454,
      "mong": 2455,
      "ner": 2456,
      "ok": 2457,
      "▁X": 2458,
      "erformance": 2459,
      "▁Flight": 2460,
      "▁cre": 2461,
      "ony": 2462,
      "es.\n": 2463,
      "▁pre": 2464,
      "aron": 2465,
      "▁T2.F": 2466,
      "▁T2.last_name": 2467,
      "▁mill": 2468,
      "ic_s": 2469,
      "alid": 2470,
      "▁body": 2471,
      "▁t2.jid": 2472,
      "00?\n": 2473,
      "ences": 2474,
      "▁decor": 2475,
      "ockings": 2476,
      "Name\n": 2477,
      "▁grant": 2478,
      "▁male": 2479,
      "▁Stockings": 2480,
      "▁avg(age)": 2481,
      "▁VLDB": 2482,
      "▁VISIT": 2483,
      "▁value": 2484,
      "structor": 2485,
      "▁weather": 2486,
      "▁county_publ": 2487,
      "▁points": 2488,
      "▁active": 2489,
      "-01": 2490,
      "▁personal": 2491,
      "▁zip_code": 2492,
      "logy": 2493,
      "_apid": 2494,
      "▁amen": 2495,
      "▁Michigan": 2496,
      "▁display": 2497,
      "_province_count": 2498,
      "ertific": 2499,
      "▁registered": 2500,
      "ic_safet": 2501,
      "▁county_public_safet": 2502,
      "\"?": 2503,
      "hite": 2504,
      "iation": 2505,
      "oal": 2506,
      "ral": 2507,
      "▁over": 2508,
      "▁took": 2509,
      "ROL": 2510,
      "iner": 2511,
      "▁theme": 2512,
      "▁popul": 2513,
      "▁T2.g": 2514,
      "▁t1.kid": 2515,
      "▁t2.p": 2516,
      "▁t2.did": 2517,
      "▁sp": 2518,
      "▁rental": 2519,
      "▁represent": 2520,
      "▁without": 2521,
      "▁degrees": 2522,
      "omine": 2523,
      "▁t4.title": 2524,
      "▁student_id": 2525,
      "▁gold": 2526,
      "▁id.\n": 2527,
      "ourse_name": 2528,
      "▁department?\n": 2529,
      "aster": 2530,
      "_Course": 2531,
      "▁enroll": 2532,
      "▁Student_Course": 2533,
      "▁Review": 2534,
      "▁listed": 2535,
      "▁journalist": 2536,
      "_Staff": 2537,
      "ittee": 2538,
      "urniture": 2539,
      "_outcome": 2540,
      "_1\n": 2541,
      "_Year": 2542,
      "job": 2543,
      "mantic": 2544,
      "wen": 2545,
      "y\";\n": 2546,
      "▁outcome": 2547,
      "▁Advisor": 2548,
      "inning": 2549,
      "▁Francisco": 2550,
      "▁them": 2551,
      "ntuck": 2552,
      "reet": 2553,
      "▁T1.E": 2554,
      "▁T1.product_id": 2555,
      "▁T2.in": 2556,
      "▁T2.dept_code": 2557,
      "▁T2.artist_name": 2558,
      "▁T2.emp_num": 2559,
      "▁\"I": 2560,
      "▁files": 2561,
      "▁in?\n": 2562,
      "▁City": 2563,
      "▁t3.mid": 2564,
      "kentuck": 2565,
      "▁Height": 2566,
      "enzyme": 2567,
      "achine": 2568,
      "▁city\n": 2569,
      "▁T2.code": 2570,
      "▁document_id": 2571,
      "▁t1.city": 2572,
      "rtist_ID": 2573,
      "▁5000": 2574,
      "_Author": 2575,
      "▁T2.project_id": 2576,
      "▁T1.project_id": 2577,
      "▁publication_keyword": 2578,
      "▁T1.document": 2579,
      "_description\n": 2580,
      "stu_num": 2581,
      "_Name\n": 2582,
      "▁item": 2583,
      "icipates_in": 2584,
      "▁short": 2585,
      "rama": 2586,
      "▁Projects": 2587,
      "▁lake": 2588,
      "rack_id": 2589,
      "▁directed_by": 2590,
      "isecond": 2591,
      "ohn": 2592,
      "party_id": 2593,
      "▁languages": 2594,
      "latform": 2595,
      "▁USER": 2596,
      "ycle": 2597,
      "ristop": 2598,
      "▁Has_allergy": 2599,
      "NO": 2600,
      "_staff_id": 2601,
      "ible": 2602,
      "nrolment": 2603,
      "ole": 2604,
      "▁roller": 2605,
      "ats": 2606,
      "anding": 2607,
      "anking": 2608,
      "dest": 2609,
      "▁\"de": 2610,
      "▁fname": 2611,
      "▁t1.product_name": 2612,
      "ises": 2613,
      "laimed": 2614,
      "▁Club": 2615,
      "▁t3.business_id": 2616,
      "urname": 2617,
      "▁T3.Name": 2618,
      "▁mean": 2619,
      "▁lname": 2620,
      "ases": 2621,
      "ighb": 2622,
      "▁rate": 2623,
      "ived": 2624,
      "oney": 2625,
      "▁lett": 2626,
      "ointment": 2627,
      "▁Students": 2628,
      "▁Ind": 2629,
      "▁sum(t": 2630,
      "▁employee_id": 2631,
      "▁T1.booking": 2632,
      "▁descriptions": 2633,
      "_Enrolment": 2634,
      "▁\"bay": 2635,
      "▁T1.People_ID": 2636,
      "▁Jagadish\"": 2637,
      "▁Companies": 2638,
      "▁oldest": 2639,
      "rolled": 2640,
      "_Group": 2641,
      "orkshop_Group": 2642,
      "ACTIONS": 2643,
      "▁TRANS": 2644,
      "▁\"french\"": 2645,
      "▁Student_Course_Enrolment": 2646,
      "▁TRANSACTIONS": 2647,
      "AC": 2648,
      "MENT": 2649,
      "o\n": 2650,
      "ohi": 2651,
      "water": 2652,
      "ynt": 2653,
      "▁tip": 2654,
      "inated": 2655,
      "orn": 2656,
      "ERIST": 2657,
      "▁purchase": 2658,
      "ound": 2659,
      "▁T1.address_id": 2660,
      "▁T1.rID": 2661,
      "▁T2.staff": 2662,
      "▁\"restaurant": 2663,
      "ract": 2664,
      "▁bi": 2665,
      "▁inj": 2666,
      "ometown": 2667,
      "▁elimination": 2668,
      "rian": 2669,
      "▁island": 2670,
      "▁Headquart": 2671,
      "▁reported": 2672,
      "▁deleg": 2673,
      "▁'L": 2674,
      "▁'U": 2675,
      "ury": 2676,
      "▁Member": 2677,
      "_per": 2678,
      "▁has_amenity": 2679,
      "interaction": 2680,
      "ARACT": 2681,
      "▁enrolled": 2682,
      "▁sum(T1.": 2683,
      "▁T1.Country": 2684,
      "ervice_Type_Code": 2685,
      "▁contact": 2686,
      "▁Customers_card": 2687,
      "▁2000;\n": 2688,
      "▁2015\n": 2689,
      "region_id": 2690,
      "▁older": 2691,
      "▁attribute": 2692,
      "▁individual": 2693,
      "pringfield": 2694,
      "▁activity": 2695,
      "itation_num": 2696,
      "ructure": 2697,
      "▁AVG(": 2698,
      "▁CHARACT": 2699,
      "_office": 2700,
      "▁Financial_transaction": 2701,
      "▁goldwater": 2702,
      "▁Reviewer": 2703,
      "ERISTIC": 2704,
      "▁CHARACTERISTIC": 2705,
      "Location": 2706,
      "_loc": 2707,
      "ared": 2708,
      "cast": 2709,
      "ised": 2710,
      "▁i": 2711,
      "▁Question": 2712,
      "▁Sex": 2713,
      "▁cur": 2714,
      "▁park": 2715,
      "anufactur": 2716,
      "▁working": 2717,
      "▁Band": 2718,
      "▁broad": 2719,
      "um_of": 2720,
      "▁elevation": 2721,
      "_company": 2722,
      "00.\n": 2723,
      "ility": 2724,
      "olors": 2725,
      "▁Paper": 2726,
      "▁Pri": 2727,
      "▁customer_name": 2728,
      "ubject": 2729,
      "▁product_characteristic": 2730,
      "imation": 2731,
      "▁Eng": 2732,
      "_document": 2733,
      "▁avg(t": 2734,
      "▁avg(T2.": 2735,
      "▁2010\n": 2736,
      "_first": 2737,
      "▁unit": 2738,
      "▁country\n": 2739,
      "▁states\n": 2740,
      "voice": 2741,
      "▁\"Los": 2742,
      "arsing\"": 2743,
      "▁containing": 2744,
      "▁manufacturer": 2745,
      "▁participated": 2746,
      "▁recently": 2747,
      "▁wrestler": 2748,
      "▁Claims": 2749,
      "▁Major": 2750,
      "▁letter": 2751,
      "▁broadcast": 2752,
      "50": 2753,
      "CCT": 2754,
      "_ind": 2755,
      "_last": 2756,
      "_rating": 2757,
      "_attendance": 2758,
      "a\"\n": 2759,
      "eid": 2760,
      "hare": 2761,
      "iwen": 2762,
      "kill": 2763,
      "lers": 2764,
      "moy": 2765,
      "uil": 2766,
      "▁T5": 2767,
      "▁among": 2768,
      "▁When": 2769,
      "on\"": 2770,
      "iong": 2771,
      "▁workshop": 2772,
      "▁T2.m": 2773,
      "▁T2.team_id": 2774,
      "▁model": 2775,
      "▁Balt": 2776,
      "lemoy": 2777,
      "hol": 2778,
      "hood": 2779,
      "▁fre": 2780,
      "▁t1.lname": 2781,
      "▁t1.authid": 2782,
      "▁t2.authid": 2783,
      "▁head": 2784,
      "gender": 2785,
      "▁Grand": 2786,
      "thel": 2787,
      "ourhood": 2788,
      "▁papers\n": 2789,
      "▁product_name": 2790,
      "imore": 2791,
      "▁T1.country": 2792,
      "_type\n": 2793,
      "_price)": 2794,
      "▁department.\n": 2795,
      "▁2008": 2796,
      "ents": 2797,
      "▁phones": 2798,
      "▁100\n": 2799,
      "_mode": 2800,
      "▁T2.firstname": 2801,
      "▁\"Boot": 2802,
      "s_w": 2803,
      "▁T2.document": 2804,
      "▁dorm_amenity": 2805,
      "ervice_id": 2806,
      "ngth": 2807,
      "icipant": 2808,
      "▁expens": 2809,
      "emp_fname": 2810,
      "_year\n": 2811,
      "▁T1.Party": 2812,
      "▁T2.Country": 2813,
      "▁appointment": 2814,
      "-211": 2815,
      "ettlemoy": 2816,
      "organisation_type": 2817,
      "▁T1.FacID": 2818,
      "▁wrestlers": 2819,
      "Order": 2820,
      "journalid": 2821,
      "▁family": 2822,
      "▁farm": 2823,
      "▁Tourist_Attractions": 2824,
      "rtwork": 2825,
      "▁Xiong": 2826,
      "▁county_public_safety": 2827,
      "ighbourhood": 2828,
      "▁product_characteristics": 2829,
      "CCT-211": 2830,
      "▁Baltimore": 2831,
      "▁\"Bootup": 2832,
      "'t": 2833,
      "60": 2834,
      "LE": 2835,
      "oin": 2836,
      "quest": 2837,
      "yl": 2838,
      "▁Total": 2839,
      "▁T1.department_id": 2840,
      "▁work": 2841,
      "▁T2.order_id": 2842,
      "▁T2.address_id": 2843,
      "▁french": 2844,
      "▁foll": 2845,
      "▁t1.s": 2846,
      "loor": 2847,
      "▁1)\n": 2848,
      "▁Payment": 2849,
      "▁'G": 2850,
      "_title": 2851,
      "▁lat": 2852,
      "▁product_id\n": 2853,
      "▁COURS": 2854,
      "▁20\n": 2855,
      "eople_id": 2856,
      "▁use": 2857,
      "▁Video": 2858,
      "_Address": 2859,
      "▁clubs": 2860,
      "datasetname": 2861,
      "_region": 2862,
      "▁transactions": 2863,
      "▁organizations": 2864,
      "▁\"University": 2865,
      "▁book_club": 2866,
      "eek": 2867,
      "▁apartments": 2868,
      "uilding_id": 2869,
      "▁you": 2870,
      "heme": 2871,
      "▁manager": 2872,
      "▁affected_region": 2873,
      "_Vote": 2874,
      "▁perpetrator": 2875,
      "wimmer": 2876,
      "oalie": 2877,
      "▁Industry": 2878,
      "ohio": 2879,
      "▁follow": 2880,
      "CH": 2881,
      "Price": 2882,
      "_ran": 2883,
      "aking": 2884,
      "ec": 2885,
      "ek": 2886,
      "lient": 2887,
      "no": 2888,
      "oe": 2889,
      "ton": 2890,
      "▁0": 2891,
      "stars": 2892,
      "▁ages": 2893,
      "aniel": 2894,
      "▁offer": 2895,
      "_id)": 2896,
      "let": 2897,
      "▁stu": 2898,
      "▁brows": 2899,
      "▁born": 2900,
      "▁Dest": 2901,
      "▁Database": 2902,
      "▁t2.msid": 2903,
      "▁sport": 2904,
      "lag": 2905,
      "ustin": 2906,
      "genre": 2907,
      "_cross": 2908,
      "▁t3.venuename": 2909,
      "cept": 2910,
      "usical": 2911,
      "▁Population": 2912,
      "▁deb": 2913,
      "▁T3.s": 2914,
      "▁Rank": 2915,
      "actic": 2916,
      "▁group": 2917,
      "▁T1.crs_code": 2918,
      "▁T1.classroom": 2919,
      "▁T2.city": 2920,
      "▁T2.classroom": 2921,
      "▁2007": 2922,
      "▁document_name": 2923,
      "email": 2924,
      "ardware": 2925,
      "▁type.\n": 2926,
      "ART": 2927,
      "▁Year": 2928,
      "mountain": 2929,
      "▁sum(T2.": 2930,
      "▁us\n": 2931,
      "▁T2.physician": 2932,
      "▁T1.project": 2933,
      "_model": 2934,
      "ventory": 2935,
      "olor_description": 2936,
      "udi": 2937,
      "▁week": 2938,
      "_Event": 2939,
      "▁T2.songid": 2940,
      "▁lowest_elevation": 2941,
      "▁smaller": 2942,
      "artist_id": 2943,
      "▁Ref_S": 2944,
      "atabases": 2945,
      "▁T2.student_id": 2946,
      "▁industry": 2947,
      "▁t2.street": 2948,
      "▁T2.customer_first_name": 2949,
      "▁Zettlemoy": 2950,
      "_level": 2951,
      "ernational": 2952,
      "▁T1.employeeid": 2953,
      "▁organisation": 2954,
      "inery": 2955,
      "yntactic": 2956,
      "▁Customers_cards": 2957,
      "▁CHARACTERISTICS": 2958,
      "▁curless": 2959,
      "uilder": 2960,
      "▁Video_g": 2961,
      "stars)": 2962,
      "_cross_re": 2963,
      "▁t2.street_name": 2964,
      "_quantity": 2965,
      "ax": 2966,
      "date": 2967,
      "eat": 2968,
      "ne": 2969,
      "su": 2970,
      "vol": 2971,
      "▁phot": 2972,
      "▁T1.age": 2973,
      "rogram": 2974,
      "▁few": 2975,
      "▁t1.datasetid": 2976,
      "▁best": 2977,
      "▁in.\n": 2978,
      "▁investor": 2979,
      "▁invol": 2980,
      "ing\n": 2981,
      "▁Los": 2982,
      "▁Co": 2983,
      "_co": 2984,
      "▁11": 2985,
      "ilway": 2986,
      "▁allerg": 2987,
      "▁Performance": 2988,
      "▁'N": 2989,
      "▁t4.keyphraseid": 2990,
      "activ": 2991,
      "▁Studio": 2992,
      "ack": 2993,
      "_policies": 2994,
      "tel": 2995,
      "▁2004": 2996,
      "▁pres": 2997,
      "_br": 2998,
      "▁enr": 2999,
      "ketball": 3000,
      "▁County": 3001,
      "▁restaurants": 3002,
      "▁Customer_P": 3003,
      "▁t5.keyphraseid": 3004,
      "▁Im": 3005,
      "▁railway": 3006,
      "_market": 3007,
      "▁\"He": 3008,
      "ookings": 3009,
      "▁4\n": 3010,
      "▁opening": 3011,
      "▁taken": 3012,
      "▁aircrafts": 3013,
      "overn": 3014,
      "▁office": 3015,
      "_contact": 3016,
      "▁affiliation": 3017,
      "_start_date": 3018,
      "_value": 3019,
      "▁systems": 3020,
      "▁received": 3021,
      "mi_cross_re": 3022,
      "_province_county": 3023,
      "ominee": 3024,
      "_locations": 3025,
      "9-0": 3026,
      "CK": 3027,
      "Net": 3028,
      "UST": 3029,
      "ael": 3030,
      "langu": 3031,
      "tware": 3032,
      "uit": 3033,
      "atistic": 3034,
      "▁ad": 3035,
      "amera": 3036,
      "ntion": 3037,
      "oul": 3038,
      "oftware": 3039,
      "arge": 3040,
      "▁T1.staff": 3041,
      "▁T2.order": 3042,
      "▁T2.raceid": 3043,
      "▁T2.stu_num": 3044,
      "icket": 3045,
      "▁fault": 3046,
      "▁flag": 3047,
      "▁t2.characteristic": 3048,
      "▁ser": 3049,
      "▁sales": 3050,
      "▁Courses": 3051,
      "▁CUST": 3052,
      "_colors": 3053,
      "▁Pop": 3054,
      "uring": 3055,
      "▁customer_address": 3056,
      "▁T3.S": 3057,
      "author_id": 3058,
      "ageNet": 3059,
      "asketball": 3060,
      "_product": 3061,
      "tention": 3062,
      "▁EMP": 3063,
      "▁cited": 3064,
      "▁date_of": 3065,
      "ives": 3066,
      "ally": 3067,
      "_Claim": 3068,
      "_billion": 3069,
      "ervations": 3070,
      "▁ids,": 3071,
      "oints": 3072,
      "▁engine": 3073,
      "▁usable": 3074,
      "▁T1.storm_id": 3075,
      "▁films": 3076,
      "▁project_id": 3077,
      "avid": 3078,
      "area": 3079,
      "▁mountains": 3080,
      "▁percent": 3081,
      "amenity_name": 3082,
      "SSN": 3083,
      "cision": 3084,
      "▁T1.songid": 3085,
      "▁courses?\n": 3086,
      "▁alphabetic": 3087,
      "Tourist_ID": 3088,
      "_gpa": 3089,
      "▁policy_type_code": 3090,
      "▁T1.city_id": 3091,
      "▁directed": 3092,
      "▁complaints": 3093,
      "▁TRACK": 3094,
      "▁attractions": 3095,
      "ircuit": 3096,
      "quent": 3097,
      "_outcomes": 3098,
      "ristoph": 3099,
      "▁delegates": 3100,
      "▁Prix": 3101,
      "▁frequent": 3102,
      "oeing": 3103,
      "▁involved": 3104,
      "▁\"Heilo": 3105,
      "atistics": 3106,
      "▁CUSTOM": 3107,
      "10": 3108,
      "5?\n": 3109,
      "OY": 3110,
      "_W": 3111,
      "ell": 3112,
      "for": 3113,
      "▁Amount": 3114,
      "apital": 3115,
      "alled": 3116,
      "▁bay": 3117,
      "▁basketball": 3118,
      "▁DEP": 3119,
      "▁t2.pid": 3120,
      "gent": 3121,
      "▁ear": 3122,
      "ils": 3123,
      "essment": 3124,
      "▁rel": 3125,
      "enn": 3126,
      "▁'D": 3127,
      "▁'K": 3128,
      "▁'R": 3129,
      "▁'Y": 3130,
      "et_T": 3131,
      "_temp": 3132,
      "ported_by": 3133,
      "▁level": 3134,
      "ategories": 3135,
      "▁seating": 3136,
      "▁York": 3137,
      "▁research": 3138,
      "▁\"PVLDB\"": 3139,
      "▁\"Peter": 3140,
      "▁classes": 3141,
      "available": 3142,
      "ommittee": 3143,
      "▁oper": 3144,
      "unction": 3145,
      "▁t3.citingpaperid": 3146,
      "▁share": 3147,
      "▁Tell": 3148,
      "▁trained": 3149,
      "_to_G": 3150,
      "▁Project_Staff": 3151,
      "▁Competition": 3152,
      "▁lives": 3153,
      "▁t1.state_name": 3154,
      "▁friends": 3155,
      "▁payment_method_code": 3156,
      "▁\"wyoming": 3157,
      "▁\"mississipp": 3158,
      "▁instruments": 3159,
      "▁architect": 3160,
      "▁cinema": 3161,
      "▁postseason": 3162,
      "▁popular": 3163,
      "▁shortest": 3164,
      "quested": 3165,
      "ARTMENT": 3166,
      "▁DEPARTMENT": 3167,
      "et_There": 3168,
      "_temperature": 3169,
      "_to_Get_There": 3170,
      "▁\"mississippi\"": 3171,
      "';\n": 3172,
      "HS": 3173,
      "_L": 3174,
      "_part": 3175,
      "_enzyme": 3176,
      "_interaction": 3177,
      "district": 3178,
      "games": 3179,
      "rid": 3180,
      "s\"\n": 3181,
      "ues": 3182,
      "y\"": 3183,
      "ying": 3184,
      "ECTION": 3185,
      "ELL": 3186,
      "▁Open": 3187,
      "▁pPos": 3188,
      "reas": 3189,
      "anad": 3190,
      "▁T1.aid": 3191,
      "▁T1.St": 3192,
      "▁T1.lname": 3193,
      "▁T1.order_id": 3194,
      "▁T1.Tourist_Attraction_ID": 3195,
      "▁T1.account": 3196,
      "▁won": 3197,
      "▁T2.department": 3198,
      "▁T2.dept_name": 3199,
      "▁T2.Tourist_Attraction_ID": 3200,
      "▁\"al": 3201,
      "▁\"VLDB\"": 3202,
      "▁\"19": 3203,
      "▁mid": 3204,
      "alar": 3205,
      "▁stay": 3206,
      "▁dom": 3207,
      "▁bal": 3208,
      "▁speed": 3209,
      "▁salar": 3210,
      "ustral": 3211,
      "▁t3.msid": 3212,
      "olice": 3213,
      "▁Parsing": 3214,
      "▁T3.balance": 3215,
      "occ": 3216,
      "ulation": 3217,
      "▁T1.cName": 3218,
      "▁T1.cust_name": 3219,
      "▁T1.course_name": 3220,
      "▁INV": 3221,
      "orm_name": 3222,
      "▁2000\n": 3223,
      "ancel": 3224,
      "ddress_ID": 3225,
      "_for": 3226,
      "▁Customers\n": 3227,
      "▁t5.keyphrasename": 3228,
      "_Description": 3229,
      "_Date\n": 3230,
      "▁T1.stars": 3231,
      "▁T1.dormid": 3232,
      "hop_ID": 3233,
      "_size": 3234,
      "▁T1.fname": 3235,
      "▁t4.citingpaperid": 3236,
      "▁weight": 3237,
      "▁publisher": 3238,
      "▁\"Le": 3239,
      "▁T1.branch_id": 3240,
      "▁reviewed": 3241,
      "▁teaches": 3242,
      "unch": 3243,
      "▁T2.branch_id": 3244,
      "▁directors": 3245,
      "_Employee": 3246,
      "▁2015;\n": 3247,
      "VLDB\";\n": 3248,
      "▁claims": 3249,
      "organiz": 3250,
      "▁email_address": 3251,
      "▁Faculty_part": 3252,
      "gree": 3253,
      "▁flights": 3254,
      "▁T2.customer_last_name": 3255,
      "▁assignedto": 3256,
      "▁medicine_enzyme": 3257,
      "▁affiliated": 3258,
      "▁t3.characteristic_id": 3259,
      "▁t3.characteristic_name": 3260,
      "_Region": 3261,
      "▁T1.Room": 3262,
      "▁device": 3263,
      "▁devices": 3264,
      "arrier": 3265,
      "▁apt_type_code": 3266,
      "▁T2.actid": 3267,
      "enreId": 3268,
      "arketing_Region": 3269,
      "▁Financial_transactions": 3270,
      "mi_cross_ref": 3271,
      "oulder": 3272,
      "▁t2.characteristic_id": 3273,
      "ported_by_staff_id": 3274,
      "▁domain": 3275,
      "▁Faculty_participates_in": 3276,
      "▁medicine_enzyme_interaction": 3277,
      "_se": 3278,
      "hing": 3279,
      "nres": 3280,
      "xpens": 3281,
      "▁out": 3282,
      "atible": 3283,
      "▁Award": 3284,
      "▁Sort": 3285,
      "▁called": 3286,
      "1.\n": 3287,
      "▁Other": 3288,
      "▁\"ame": 3289,
      "▁\"se": 3290,
      "allas": 3291,
      "▁furniture": 3292,
      "▁t1.oid": 3293,
      "▁t1.datasetname": 3294,
      "▁invest": 3295,
      "▁Lname": 3296,
      "▁Last": 3297,
      "_country": 3298,
      "▁t3.restaurant_id": 3299,
      "▁t3.house_number": 3300,
      "▁Play": 3301,
      "▁Price": 3302,
      "▁Peter": 3303,
      "▁Rob": 3304,
      "▁t4.mid": 3305,
      "▁product_type_code": 3306,
      "_pla": 3307,
      "▁T2.country": 3308,
      "▁avg(p": 3309,
      "▁NIPS": 3310,
      "▁under": 3311,
      "▁type?\n": 3312,
      "ague": 3313,
      "▁genres": 3314,
      "_score": 3315,
      "role_code": 3316,
      "▁Documents_w": 3317,
      "▁T4.c": 3318,
      "▁\"NIPS": 3319,
      "_Sett": 3320,
      "▁Age\n": 3321,
      "▁branches": 3322,
      "▁access": 3323,
      "▁150000": 3324,
      "ribut": 3325,
      "▁bedType": 3326,
      "▁built": 3327,
      "▁bigger": 3328,
      "ertificate": 3329,
      "▁injury": 3330,
      "▁allergies": 3331,
      "▁Documents_with": 3332,
      "-1": 3333,
      ".D": 3334,
      "2\n": 3335,
      "PR": 3336,
      "cientist": 3337,
      "eam": 3338,
      "f\n": 3339,
      "h.D": 3340,
      "lbum": 3341,
      "o\"": 3342,
      "per": 3343,
      "ris": 3344,
      "▁-": 3345,
      "er\"\n": 3346,
      "▁advis": 3347,
      "▁ACL": 3348,
      "▁School": 3349,
      "▁Sett": 3350,
      "▁SECTION": 3351,
      "▁chip": 3352,
      "revenue": 3353,
      "▁Jose": 3354,
      "▁T1.apt_id": 3355,
      "▁when": 3356,
      "▁T2.aid": 3357,
      "▁T2.med": 3358,
      "▁T2.amenid": 3359,
      "▁T2.genre": 3360,
      "▁\"mountain": 3361,
      "al_": 3362,
      "▁D.": 3363,
      "▁t2.instid": 3364,
      "▁hap": 3365,
      "▁Course": 3366,
      "▁editor": 3367,
      "▁t3.did": 3368,
      "▁t3.journalid": 3369,
      "rime": 3370,
      "▁25": 3371,
      "▁deep": 3372,
      "▁customers.\n": 3373,
      "▁customers?\n": 3374,
      "▁T3.F": 3375,
      "▁T3.dept_code": 3376,
      "▁MAT": 3377,
      "▁Mann": 3378,
      "▁t4.keyphrasename": 3379,
      "▁latest": 3380,
      "▁gtype": 3381,
      "▁rated": 3382,
      "_prof": 3383,
      "▁T2.class_code": 3384,
      "_day": 3385,
      "▁t2.campus": 3386,
      "eople_ID\n": 3387,
      "▁scores": 3388,
      "▁t1.color_code": 3389,
      "product_price)": 3390,
      "▁total?\n": 3391,
      "_Cont": 3392,
      "▁Visit": 3393,
      "and_T": 3394,
      "rtistId": 3395,
      "▁visit": 3396,
      "▁season": 3397,
      "▁along": 3398,
      "▁Student\n": 3399,
      "▁1000\n": 3400,
      "▁T1.prof": 3401,
      "▁T1.player_id": 3402,
      "▁roomName": 3403,
      "▁hotel": 3404,
      "▁\"ACL": 3405,
      "s_R": 3406,
      "vision": 3407,
      "▁tweet": 3408,
      "unications": 3409,
      "▁t1.fname": 3410,
      "▁communications": 3411,
      "rollment)": 3412,
      "rican\"": 3413,
      "▁2010?\n": 3414,
      "▁trips": 3415,
      "▁density\n": 3416,
      "▁Reservations": 3417,
      "▁user_prof": 3418,
      "▁\"texas\"": 3419,
      "▁allergytype": 3420,
      "▁T1.stuid": 3421,
      "▁view\"": 3422,
      "member_id": 3423,
      "▁Apartment_Bookings": 3424,
      "▁ref_colors": 3425,
      "▁main_ind": 3426,
      "▁created": 3427,
      "▁\"deep": 3428,
      "▁\"restaurant\";\n": 3429,
      "▁Headquarters": 3430,
      "▁T2.team_id_br": 3431,
      "▁COURSE": 3432,
      "▁young": 3433,
      "usical_ID": 3434,
      "▁Year\n": 3435,
      "▁Video_games": 3436,
      "▁fewest": 3437,
      "ristopher": 3438,
      "▁CUSTOMER": 3439,
      "district_id": 3440,
      "▁balances": 3441,
      "▁salaries": 3442,
      "▁\"american\"": 3443,
      "_Settled": 3444,
      "▁Settlement": 3445,
      "revenue)": 3446,
      "▁MATCH": 3447,
      "▁main_industry": 3448,
      "200": 3449,
      "7.": 3450,
      "IL": 3451,
      "_age": 3452,
      "_est": 3453,
      "a'\n": 3454,
      "cot": 3455,
      "p\n": 3456,
      "s\";\n": 3457,
      "uid": 3458,
      "▁own": 3459,
      "merican": 3460,
      "standing": 3461,
      "onn": 3462,
      "▁Off": 3463,
      "release": 3464,
      "▁T1.L": 3465,
      "▁T1.m": 3466,
      "▁T2.department_id": 3467,
      "▁\"V": 3468,
      "▁\"d": 3469,
      "▁\"Question": 3470,
      "▁mississipp": 3471,
      "▁hour": 3472,
      "▁Catalog": 3473,
      "ge)": 3474,
      "▁t3.datasetid": 3475,
      "▁T3.st": 3476,
      "▁Restaurant": 3477,
      "▁mont": 3478,
      "_types": 3479,
      "▁product_price": 3480,
      "▁mails": 3481,
      "accelerator": 3482,
      "_post": 3483,
      "▁avg(b": 3484,
      "▁Number": 3485,
      "▁Nominee": 3486,
      "▁length": 3487,
      "▁300": 3488,
      "▁screen": 3489,
      "▁atten": 3490,
      "_state": 3491,
      "▁to?\n": 3492,
      "▁highest_point": 3493,
      "▁t5.authorid": 3494,
      "▁address_id\n": 3495,
      "_De": 3496,
      "_Passengers": 3497,
      "s_and_T": 3498,
      "_record": 3499,
      "▁jobs": 3500,
      "▁T3.city": 3501,
      "_Attribut": 3502,
      "▁shared": 3503,
      "▁gender\n": 3504,
      "▁participant": 3505,
      "▁Organ": 3506,
      "_Made": 3507,
      "▁\"californi": 3508,
      "pair": 3509,
      "ootball": 3510,
      "▁login": 3511,
      "_NUM": 3512,
      "ping_age": 3513,
      "▁place": 3514,
      "▁Answering\";\n": 3515,
      "ickname": 3516,
      "▁Asset": 3517,
      "_Authors_and_T": 3518,
      "_percent": 3519,
      "▁president": 3520,
      "_placed": 3521,
      "h.D.": 3522,
      "▁Course_Authors_and_T": 3523,
      "▁Manning": 3524,
      "▁mississippi": 3525,
      "▁mailshot": 3526,
      "ping_agent": 3527,
      "▁Course_Authors_and_Tut": 3528,
      "1?\n": 3529,
      "A\"": 3530,
      "BUM": 3531,
      "LBUM": 3532,
      "PP": 3533,
      "RE": 3534,
      "_a": 3535,
      "_IN": 3536,
      "_lname": 3537,
      "_email": 3538,
      "b\n": 3539,
      "dle": 3540,
      "ik": 3541,
      "kins": 3542,
      "mary": 3543,
      "mite": 3544,
      "pose": 3545,
      "son": 3546,
      "tal": 3547,
      "time": 3548,
      "uchan": 3549,
      "st_apid": 3550,
      "▁ALBUM": 3551,
      "▁APP": 3552,
      "▁San": 3553,
      "▁First": 3554,
      "nter": 3555,
      "nternational": 3556,
      "▁cust_name": 3557,
      "▁csu": 3558,
      "ono": 3559,
      "on_T": 3560,
      "reat": 3561,
      "ounder": 3562,
      "▁T1.organisation_id": 3563,
      "▁T2.allergy": 3564,
      "▁T2.apt_id": 3565,
      "▁mono": 3566,
      "▁Be": 3567,
      "▁band": 3568,
      "▁inventory": 3569,
      "▁Den": 3570,
      "vehic": 3571,
      "▁t2.user_id": 3572,
      "▁t2.oid": 3573,
      "▁source": 3574,
      "▁Company": 3575,
      "▁emp": 3576,
      "▁t3.f": 3577,
      "▁t3.lname": 3578,
      "▁t3.user_id": 3579,
      "▁HO": 3580,
      "▁repair": 3581,
      "enr": 3582,
      "urse": 3583,
      "ESULT": 3584,
      "ubmission": 3585,
      "▁T3.dept_name": 3586,
      "▁T3.amenid": 3587,
      "▁RESULT": 3588,
      "▁t4.year": 3589,
      "▁product_category_code": 3590,
      "adis": 3591,
      "▁order_id": 3592,
      "▁order_id\n": 3593,
      "▁T1.cust_id": 3594,
      "▁T2.cName": 3595,
      "▁Event": 3596,
      "▁prov": 3597,
      "▁average,": 3598,
      "▁avg(c": 3599,
      "room_count)": 3600,
      "▁buchan": 3601,
      "▁year.\n": 3602,
      "▁church": 3603,
      "▁50\n": 3604,
      "string": 3605,
      "resolution": 3606,
      "▁using": 3607,
      "▁T2.pID": 3608,
      "▁teams": 3609,
      "_registr": 3610,
      "▁T2.Product": 3611,
      "▁\"buchan": 3612,
      "_address_id": 3613,
      "osemite": 3614,
      "▁'Al": 3615,
      "▁Investor": 3616,
      "rick": 3617,
      "▁T1.SongId": 3618,
      "▁correspond": 3619,
      "▁substring": 3620,
      "▁card_type_code": 3621,
      "▁Project_outcomes": 3622,
      "▁positions": 3623,
      "▁pilots": 3624,
      "restler": 3625,
      "▁participate": 3626,
      "_order_placed": 3627,
      "ymnast_ID": 3628,
      "iology": 3629,
      "▁events": 3630,
      "▁shops": 3631,
      "▁University\"": 3632,
      "▁'Boston": 3633,
      "▁T1.Gymnast_ID": 3634,
      "▁Angeles\"": 3635,
      "▁T3.dormid": 3636,
      "▁days": 3637,
      "balance)": 3638,
      "apacity)": 3639,
      "▁Songs": 3640,
      "▁prereq": 3641,
      "▁hire_date": 3642,
      "▁released": 3643,
      "▁T1.reported_by_staff_id": 3644,
      "▁prem": 3645,
      "▁English": 3646,
      "holars": 3647,
      "▁offered": 3648,
      "▁Zettlemoyer": 3649,
      "_quantity)": 3650,
      "▁T3.SongId": 3651,
      "▁frequently": 3652,
      "▁related": 3653,
      "ELLATION": 3654,
      "ancelled": 3655,
      "▁APPELLATION": 3656,
      "▁buchanan": 3657,
      "▁\"buchanan\"": 3658,
      "0?\n": 3659,
      "Ite": 3660,
      "cident": 3661,
      "fee": 3662,
      "l\";\n": 3663,
      "n\n": 3664,
      "so": 3665,
      "uns": 3666,
      "▁3.": 3667,
      "▁quantity": 3668,
      "▁ROL": 3669,
      "▁test": 3670,
      "▁Title": 3671,
      "▁Services": 3672,
      "▁camera": 3673,
      "▁T1.W": 3674,
      "▁T1.In": 3675,
      "▁T2.product": 3676,
      "▁T2.product_name": 3677,
      "▁\"en": 3678,
      "▁\"ac": 3679,
      "nderg": 3680,
      "▁file": 3681,
      "▁founder": 3682,
      "rain": 3683,
      "▁t1.did": 3684,
      "▁t1.msid": 3685,
      "▁Dina": 3686,
      "ing\"\n": 3687,
      "▁He": 3688,
      "▁statement": 3689,
      "▁state;\n": 3690,
      "▁customer_phone": 3691,
      "owment": 3692,
      "▁COUNT(": 3693,
      "asure": 3694,
      "▁T1.company_id": 3695,
      "_type_description": 3696,
      "text": 3697,
      "▁average?\n": 3698,
      "ainten": 3699,
      "▁playing": 3700,
      "▁league": 3701,
      "hipping": 3702,
      "▁attendance": 3703,
      "▁citation": 3704,
      "▁date.\n": 3705,
      "_fe": 3706,
      "▁chi": 3707,
      "uter": 3708,
      "resident": 3709,
      "▁larger": 3710,
      "_match": 3711,
      "▁film_market": 3712,
      "▁constructor": 3713,
      "s_on_T": 3714,
      "▁\"Dina": 3715,
      "▁T1.building_id": 3716,
      "▁dorms": 3717,
      "ification": 3718,
      "▁reviews": 3719,
      "▁maximum,": 3720,
      "▁performance": 3721,
      "▁Products\n": 3722,
      "▁types.\n": 3723,
      "▁musician": 3724,
      "▁neighbourhood": 3725,
      "_status_code\n": 3726,
      "▁acl": 3727,
      "▁starting": 3728,
      "▁subject": 3729,
      "▁\"US": 3730,
      "▁minimum,": 3731,
      "▁physicians": 3732,
      "▁Accounts\n": 3733,
      "▁through\n": 3734,
      "▁candidates": 3735,
      "▁Country\n": 3736,
      "▁technicians": 3737,
      "▁volumes": 3738,
      "▁problem_log": 3739,
      "▁endowment": 3740,
      "▁Mertens\"": 3741,
      "▁basePrice": 3742,
      "_assign": 3743,
      "▁Location\n": 3744,
      "▁Barbian\";\n": 3745,
      "▁student_course_registr": 3746,
      "▁T1.Aircraft_ID": 3747,
      "line_": 3748,
      "▁amenities": 3749,
      "▁bike": 3750,
      "▁expensive": 3751,
      "▁latitude": 3752,
      "eeks_on_T": 3753,
      "overnor": 3754,
      "_temperature_f": 3755,
      "▁Plays_": 3756,
      "▁user_profiles": 3757,
      "▁younger": 3758,
      "_estimation": 3759,
      "release_year": 3760,
      "▁csu_fe": 3761,
      "reatment": 3762,
      "▁HOST": 3763,
      "holarship": 3764,
      "▁ROLES": 3765,
      "▁\"acl\";\n": 3766,
      "aintenance": 3767,
      "▁film_market_estimation": 3768,
      "▁student_course_registrations": 3769,
      "eeks_on_Top": 3770,
      "AL": 3771,
      "Lname": 3772,
      "bus": 3773,
      "bel": 3774,
      "bility": 3775,
      "ci": 3776,
      "duration": 3777,
      "e\"": 3778,
      "ename": 3779,
      "glish": 3780,
      "pert": 3781,
      "van": 3782,
      "▁illinois": 3783,
      "▁Act": 3784,
      "▁All": 3785,
      "▁Se": 3786,
      "▁Sh": 3787,
      "▁Sp": 3788,
      "▁Shop": 3789,
      "▁Sawayn": 3790,
      "▁FAC": 3791,
      "orning": 3792,
      "▁circuit": 3793,
      "▁Wen": 3794,
      "onvolution": 3795,
      "▁pit": 3796,
      "▁Janess": 3797,
      "arole": 3798,
      "▁T1.lastname": 3799,
      "▁T1.emp_num": 3800,
      "▁T1.i_id": 3801,
      "▁T1.raceid": 3802,
      "▁T2.de": 3803,
      "▁T2.stuid": 3804,
      "▁T2.StuID": 3805,
      "▁T2.emp_fname": 3806,
      "▁\"illinois": 3807,
      "▁money": 3808,
      "ics": 3809,
      "roblem": 3810,
      "apid": 3811,
      "alo": 3812,
      "▁t1.document": 3813,
      "▁Date\n": 3814,
      "▁Drama": 3815,
      "▁t2.order_id": 3816,
      "▁swimmer": 3817,
      "▁Less": 3818,
      "▁Loun": 3819,
      "▁GRA": 3820,
      "ed)": 3821,
      "▁Hall": 3822,
      "▁HOT": 3823,
      "opkins": 3824,
      "▁Publ": 3825,
      "▁def": 3826,
      "▁death": 3827,
      "▁T3.T": 3828,
      "▁T3.p": 3829,
      "▁T3.product_id": 3830,
      "▁forename": 3831,
      "OUR": 3832,
      "▁products.\n": 3833,
      "▁got": 3834,
      "▁guest": 3835,
      "adland": 3836,
      "▁T1.campus": 3837,
      "▁Store": 3838,
      "▁Enter": 3839,
      "rant_id": 3840,
      "astest": 3841,
      "▁2005": 3842,
      "eli": 3843,
      "elle": 3844,
      "elational": 3845,
      "▁t2.customer": 3846,
      "▁t1.campus": 3847,
      "▁date_from": 3848,
      "▁year?\n": 3849,
      "_station_id": 3850,
      "_structure": 3851,
      "▁50000": 3852,
      "▁minist": 3853,
      "_builder": 3854,
      "▁vis": 3855,
      "▁video": 3856,
      "quisit": 3857,
      "▁get": 3858,
      "▁artist_name": 3859,
      "▁t5.c": 3860,
      "▁T2.player_id": 3861,
      "arket_ID": 3862,
      "▁T1.pID": 3863,
      "▁\"Sawayn": 3864,
      "▁T1.film_id": 3865,
      "ference": 3866,
      "olorad": 3867,
      "ountain_ID": 3868,
      "▁T1.City": 3869,
      "▁web": 3870,
      "▁well": 3871,
      "▁\"Badland": 3872,
      "ost_ID": 3873,
      "▁items": 3874,
      "▁\"Te": 3875,
      "▁\"Hopkins": 3876,
      "_expens": 3877,
      "▁T1.surname": 3878,
      "▁T2.Appelation": 3879,
      "amount)": 3880,
      "▁T3.custid": 3881,
      "▁location_code": 3882,
      "angla": 3883,
      "location_id": 3884,
      "▁new": 3885,
      "prises": 3886,
      "▁accelerator": 3887,
      "_city\n": 3888,
      "oungest": 3889,
      "▁catalog_cont": 3890,
      "▁\"Janess": 3891,
      "▁keywords": 3892,
      "ORS": 3893,
      "hibition_id": 3894,
      "▁old": 3895,
      "▁credits": 3896,
      "-26": 3897,
      "▁94": 3898,
      "uppliers": 3899,
      "▁\"food": 3900,
      "▁hosts": 3901,
      "exhibition_id": 3902,
      "vestor_id": 3903,
      "▁youngest": 3904,
      "▁t2.state_name": 3905,
      "▁\"convolution": 3906,
      "_problem": 3907,
      "▁T2.track_id": 3908,
      "lass\n": 3909,
      "_entry_name": 3910,
      "▁language": 3911,
      "▁patients": 3912,
      "▁format": 3913,
      "▁Participant": 3914,
      "irport_ID": 3915,
      "▁prerequisit": 3916,
      "ULTY": 3917,
      "▁student_course_attendance": 3918,
      "▁don't": 3919,
      "▁body_builder": 3920,
      "▁VISITS": 3921,
      "▁T1.booking_start_date": 3922,
      "▁purchased": 3923,
      "▁'United": 3924,
      "anufacturer": 3925,
      "▁T5.": 3926,
      "activity_name": 3927,
      "_Workshop_Group": 3928,
      "▁lives_in": 3929,
      "_Employee_ID": 3930,
      "▁Documents_with_expens": 3931,
      "_Attributes": 3932,
      "vehicle": 3933,
      "enr)": 3934,
      "▁'Alice": 3935,
      "▁csu_fees": 3936,
      "duration)": 3937,
      "▁illinois\n": 3938,
      "▁FACULTY": 3939,
      "▁Janessa": 3940,
      "▁\"illinois\";\n": 3941,
      "▁Lounge": 3942,
      "▁HOTEL": 3943,
      "▁Enterprises": 3944,
      "▁\"Janessa\"": 3945,
      "AIL": 3946,
      "DA": 3947,
      "IM": 3948,
      "LOY": 3949,
      "Qu": 3950,
      "YEAR": 3951,
      "_y": 3952,
      "_AT": 3953,
      "ak": 3954,
      "ev": 3955,
      "eature": 3956,
      "gul": 3957,
      "grade": 3958,
      "ikes": 3959,
      "o\"\n": 3960,
      "rofess": 3961,
      "ses": 3962,
      "use": 3963,
      "y\"\n": 3964,
      "▁qu": 3965,
      "▁Ass": 3966,
      "org": 3967,
      "oupon": 3968,
      "anag": 3969,
      "ion\n": 3970,
      "▁fee": 3971,
      "▁support": 3972,
      "▁history": 3973,
      "lot": 3974,
      "▁netw": 3975,
      "▁PRO": 3976,
      "▁den": 3977,
      "▁t4.jid": 3978,
      "_track": 3979,
      "▁lapt": 3980,
      "ichael": 3981,
      "▁runs": 3982,
      "▁lot": 3983,
      "▁firstname": 3984,
      "▁river\n": 3985,
      "▁documents.\n": 3986,
      "otal)": 3987,
      "_festival": 3988,
      "isher": 3989,
      "▁united": 3990,
      "▁charge": 3991,
      "_Cycle": 3992,
      "_Claimed": 3993,
      "_be": 3994,
      "_of_day": 3995,
      "▁section": 3996,
      "_Agent": 3997,
      "illisecond": 3998,
      "▁United": 3999,
      "▁resident": 4000,
      "▁price.\n": 4001,
      "▁player_id\n": 4002,
      "▁manage": 4003,
      "rating)": 4004,
      "▁convolution": 4005,
      "_event": 4006,
      "000?\n": 4007,
      "▁t3.category_name": 4008,
      "▁regions": 4009,
      "▁\"sh": 4010,
      "▁10;\n": 4011,
      "▁medication": 4012,
      "_to_be": 4013,
      "▁accept": 4014,
      "lection_Cycle": 4015,
      "▁T2.station_id": 4016,
      "▁Documents_to_be": 4017,
      "odel_name": 4018,
      "▁hosting": 4019,
      "▁600": 4020,
      "▁storms": 4021,
      "▁other_": 4022,
      "▁enzymes": 4023,
      "_entry_id": 4024,
      "_lens": 4025,
      "▁learning\"": 4026,
      "▁music_festival": 4027,
      "▁biggest": 4028,
      "▁incident": 4029,
      "▁kind": 4030,
      "▁representative": 4031,
      "▁roller_co": 4032,
      "▁Ref_Shipping": 4033,
      "▁EMPLOY": 4034,
      "▁basketball_match": 4035,
      "▁Other_Details\n": 4036,
      "▁chip_model": 4037,
      "onnage": 4038,
      "_postcode": 4039,
      "▁Denomination": 4040,
      "Item": 4041,
      "▁Drama_Workshop_Group": 4042,
      "▁Lessons": 4043,
      "Quantity": 4044,
      "YEAR)": 4045,
      "gular": 4046,
      "▁laptime": 4047,
      "▁Ref_Shipping_Agent": 4048,
      "▁EMPLOYE": 4049,
      "84": 4050,
      "AIN": 4051,
      "KB": 4052,
      "NER": 4053,
      "OIC": 4054,
      "RT": 4055,
      "Res": 4056,
      "TRA": 4057,
      "WNER": 4058,
      "_available": 4059,
      "date\n": 4060,
      "goalie": 4061,
      "hly": 4062,
      "ired": 4063,
      "rc": 4064,
      "sk": 4065,
      "tz": 4066,
      "ttendance": 4067,
      "yes": 4068,
      "▁im": 4069,
      "▁kentuck": 4070,
      "▁typ": 4071,
      "▁Type": 4072,
      "▁TOUR": 4073,
      "stroy": 4074,
      "ators": 4075,
      "▁award": 4076,
      "▁Appelation": 4077,
      "▁ART": 4078,
      "in\n": 4079,
      "CTIONS": 4080,
      "amed": 4081,
      "▁californi": 4082,
      "▁OWNER": 4083,
      "▁passengers": 4084,
      "ans": 4085,
      "▁John": 4086,
      "▁T1.region_id": 4087,
      "▁T1.eid": 4088,
      "▁wed": 4089,
      "▁T2.apt": 4090,
      "▁T2.i_id": 4091,
      "▁T2.author_id": 4092,
      "▁\"kentuck": 4093,
      "▁station_id": 4094,
      "▁stores": 4095,
      "▁f_id": 4096,
      "▁District": 4097,
      "▁DOM": 4098,
      "▁count.\n": 4099,
      "▁Credit": 4100,
      "▁Carrier": 4101,
      "▁Certificate": 4102,
      "▁est": 4103,
      "▁etz": 4104,
      "the": 4105,
      "rio": 4106,
      "IST_AT": 4107,
      "open": 4108,
      "enrollment)": 4109,
      "order_quantity)": 4110,
      "▁'yes": 4111,
      "inda": 4112,
      "individual": 4113,
      "▁T3.A": 4114,
      "▁T3.title": 4115,
      "▁T3.amenity_name": 4116,
      "▁Ro": 4117,
      "ominated": 4118,
      "▁Marketing_Region": 4119,
      "▁line": 4120,
      "▁gran": 4121,
      "▁city?\n": 4122,
      "▁id?\n": 4123,
      "▁T1.claim_id": 4124,
      "ailway": 4125,
      "▁EN": 4126,
      "▁t2.citation_num": 4127,
      "▁t2.color_description": 4128,
      "▁t2.capital": 4129,
      "▁trade": 4130,
      "▁prescrib": 4131,
      "▁documents?\n": 4132,
      "▁date_to": 4133,
      "_destroy": 4134,
      "▁employees.\n": 4135,
      "_store": 4136,
      "▁type,": 4137,
      "▁song_name": 4138,
      "_in_Event": 4139,
      "▁semantic": 4140,
      "▁borders": 4141,
      "▁age.\n": 4142,
      "▁code.\n": 4143,
      "▁t5.authorname": 4144,
      "ransaction_amount)": 4145,
      "▁accounts.\n": 4146,
      "▁max(T1.": 4147,
      "_Platform": 4148,
      "_million": 4149,
      "▁\"Parsing\"": 4150,
      "_speed": 4151,
      "▁T1.f_id": 4152,
      "▁T1.firstname": 4153,
      "▁T2.f_id": 4154,
      "▁T2.film_id": 4155,
      "▁t4.cid": 4156,
      "▁\"Mar": 4157,
      "▁\"David": 4158,
      "▁T2.director": 4159,
      "_register": 4160,
      "▁T1.Allergy": 4161,
      "▁T1.Appelation": 4162,
      "▁perfor": 4163,
      "▁range": 4164,
      "▁Product_Name": 4165,
      "▁job_id": 4166,
      "▁commission": 4167,
      "▁T3.code": 4168,
      "▁T3.crs_code": 4169,
      "olicy_id": 4170,
      "▁StuID\n": 4171,
      "▁started": 4172,
      "▁entry": 4173,
      "▁2010;\n": 4174,
      "_game": 4175,
      "ancy": 4176,
      "▁label": 4177,
      "▁datasets": 4178,
      "▁entrepreneurs": 4179,
      "▁T2.Hometown": 4180,
      "_Status": 4181,
      "ystem": 4182,
      "▁official": 4183,
      "ship_id": 4184,
      "manufactur": 4185,
      "▁T1.stu_num": 4186,
      "▁Allergy_type": 4187,
      "_station_name": 4188,
      "▁festival_detail": 4189,
      "▁Date_Claim": 4190,
      "▁\"null": 4191,
      "gistration": 4192,
      "▁climbers": 4193,
      "▁T2.Room": 4194,
      "▁interaction": 4195,
      "▁T2.Party_ID": 4196,
      "ebKB": 4197,
      "-01-01": 4198,
      "ubject_id": 4199,
      "▁browser": 4200,
      "rogram_id": 4201,
      "▁alphabetically": 4202,
      "▁\"Heilo\"": 4203,
      "HS)": 4204,
      "▁INVOIC": 4205,
      "▁\"semantic": 4206,
      "▁attended": 4207,
      "▁Organis": 4208,
      "▁Course_Authors_and_Tutors": 4209,
      "▁T2.allergytype": 4210,
      "▁t3.fname": 4211,
      "ubmission_ID": 4212,
      "restler_ID": 4213,
      "▁APPELLATIONS": 4214,
      "▁\"english": 4215,
      "▁league_id\n": 4216,
      "▁\"Sawayn\";\n": 4217,
      "▁Documents_to_be_destroy": 4218,
      "▁hosting_city": 4219,
      "▁Ref_Shipping_Agents": 4220,
      "TRACTIONS": 4221,
      "▁TOURIST_AT": 4222,
      "▁ARTIST": 4223,
      "▁wedding": 4224,
      "▁\"kentucky\";\n": 4225,
      "▁DOMAIN": 4226,
      "▁etzion": 4227,
      "▁grande": 4228,
      "▁TOURIST_ATTRACTIONS": 4229,
      "18": 4230,
      "6\n": 4231,
      "9\n": 4232,
      "Age)": 4233,
      "Rep": 4234,
      "_O": 4235,
      "_is": 4236,
      "_end": 4237,
      "_alt": 4238,
      "a?\n": 4239,
      "aho": 4240,
      "cess": 4241,
      "ears": 4242,
      "s?": 4243,
      "uc": 4244,
      "xic": 4245,
      "▁tr": 4246,
      "er'\n": 4247,
      "ided": 4248,
      "▁Software": 4249,
      "inence": 4250,
      "▁cycle": 4251,
      "▁T1.in": 4252,
      "▁T1.part": 4253,
      "▁T1.te": 4254,
      "▁\"ohio": 4255,
      "▁mission": 4256,
      "alk": 4257,
      "▁t2.id": 4258,
      "▁t2.keyphrasename": 4259,
      "▁springfield": 4260,
      "▁Grant": 4261,
      "▁nickname": 4262,
      "▁(sex": 4263,
      "olum": 4264,
      "▁names?\n": 4265,
      "▁'m": 4266,
      "ural": 4267,
      "▁T3.staff": 4268,
      "owns": 4269,
      "▁met": 4270,
      "erem": 4271,
      "age_size": 4272,
      "▁Start": 4273,
      "_purchase": 4274,
      "_page_size": 4275,
      "▁Ed": 4276,
      "▁avg(P": 4277,
      "▁max_page_size": 4278,
      "▁t1.cid": 4279,
      "▁members?\n": 4280,
      "_branch": 4281,
      "_Aircraft": 4282,
      "▁people\n": 4283,
      "▁\"CV": 4284,
      "_Price": 4285,
      "▁\"Sp": 4286,
      "▁film\n": 4287,
      "_system": 4288,
      "▁T2.date": 4289,
      "_reported": 4290,
      "▁min(age)": 4291,
      "▁reviewer": 4292,
      "▁reviewers": 4293,
      "eight)": 4294,
      "▁perform": 4295,
      "▁\"springfield": 4296,
      "▁sharon": 4297,
      "▁T1.Product": 4298,
      "▁open_year": 4299,
      "▁conferences": 4300,
      "▁media": 4301,
      "▁businesses": 4302,
      "_Type_Description": 4303,
      "▁\"United": 4304,
      "▁\"Rob": 4305,
      "outcome_code": 4306,
      "▁parsing\";\n": 4307,
      "▁home_game": 4308,
      "▁2016;\n": 4309,
      "▁launch": 4310,
      "▁\"Ed": 4311,
      "▁bookings": 4312,
      "▁activities": 4313,
      "▁festivals": 4314,
      "▁membership_register": 4315,
      "_competition": 4316,
      "▁places": 4317,
      "▁gas_station": 4318,
      "▁incl": 4319,
      "▁billing_country": 4320,
      "▁playlists": 4321,
      "▁\"chi\";\n": 4322,
      "▁millisecond": 4323,
      "▁Stockings'": 4324,
      "▁representat": 4325,
      "inning_Aircraft": 4326,
      "▁goldwater\";\n": 4327,
      "▁Papers": 4328,
      "▁Baltimore\"": 4329,
      "▁followers": 4330,
      "ridge": 4331,
      "mi_cross_ref_id": 4332,
      "▁provided": 4333,
      "perty": 4334,
      "_problem_reported": 4335,
      "▁\"sharon": 4336,
      "▁Software_Platform": 4337,
      "▁\"ohio\";\n": 4338,
      "▁\"springfield\";\n": 4339,
      "▁membership_register_branch": 4340,
      ".ship": 4341,
      ".Res": 4342,
      "34": 4343,
      "37": 4344,
      "5.\n": 4345,
      "EB": 4346,
      "IS": 4347,
      "OD": 4348,
      "Visit": 4349,
      "_out": 4350,
      "_acc": 4351,
      "_open": 4352,
      "a.\n": 4353,
      "asta": 4354,
      "day": 4355,
      "ethel": 4356,
      "ford": 4357,
      "game": 4358,
      "hard": 4359,
      "hadi": 4360,
      "point": 4361,
      "tary": 4362,
      "total)": 4363,
      "u_id": 4364,
      "▁occ": 4365,
      "stop": 4366,
      "student": 4367,
      "ered": 4368,
      "▁Air": 4369,
      "▁ACCT-211": 4370,
      "in\"\n": 4371,
      "incent": 4372,
      "▁FacID": 4373,
      "ameid": 4374,
      "orth": 4375,
      "▁Where": 4376,
      "▁Winery": 4377,
      "▁pri": 4378,
      "▁pld": 4379,
      "retary": 4380,
      "ane": 4381,
      "anoeing": 4382,
      "▁T1.act": 4383,
      "▁T1.party_id": 4384,
      "▁T1.gender": 4385,
      "▁T1.apid": 4386,
      "▁wine": 4387,
      "▁T2.dept": 4388,
      "▁T2.rID": 4389,
      "▁T2.job": 4390,
      "▁T2.langu": 4391,
      "▁\"j": 4392,
      "▁Ble": 4393,
      "▁Building": 4394,
      "le\"\n": 4395,
      "ndar": 4396,
      "▁stars": 4397,
      "▁draft": 4398,
      "▁data": 4399,
      "▁t1.jid": 4400,
      "▁bus": 4401,
      "▁block": 4402,
      "▁Lad": 4403,
      "▁Liwen": 4404,
      "istance": 4405,
      "▁Game": 4406,
      "ustomerId": 4407,
      "▁t3.order_id": 4408,
      "▁t3.instid": 4409,
      "berg": 4410,
      "ilk": 4411,
      "ISTAT": 4412,
      "engine": 4413,
      "▁Police": 4414,
      "▁detention": 4415,
      "▁'I": 4416,
      "▁'goalie": 4417,
      "▁state_province_county": 4418,
      "▁M.": 4419,
      "▁Mar": 4420,
      "▁t4.name": 4421,
      "▁products?\n": 4422,
      "ichard": 4423,
      "advis": 4424,
      "▁city_code\n": 4425,
      "igh_de": 4426,
      "orename": 4427,
      "▁make": 4428,
      "▁coach": 4429,
      "▁T1.class_code": 4430,
      "amie": 4431,
      "▁rd": 4432,
      "▁rates": 4433,
      "_population": 4434,
      "▁T2.cust_id": 4435,
      "ayaking": 4436,
      "▁first_name\n": 4437,
      "▁lastname": 4438,
      "▁last_name\n": 4439,
      "ccup": 4440,
      "▁New": 4441,
      "▁Num_of": 4442,
      "▁left": 4443,
      "room_count": 4444,
      "▁attend": 4445,
      "product_category_code": 4446,
      "_of_transaction": 4447,
      "▁once": 4448,
      "result": 4449,
      "obile": 4450,
      "nsyl": 4451,
      "▁code,": 4452,
      "_date)": 4453,
      "▁sum(hours": 4454,
      "▁bethel": 4455,
      "▁T1.station_id": 4456,
      "▁T2.prof": 4457,
      "▁T2.pPos": 4458,
      "▁T1.dorm_name": 4459,
      "▁Region": 4460,
      "dern": 4461,
      "▁\"Pen": 4462,
      "▁T1.facID": 4463,
      "▁T1.forename": 4464,
      "▁T2.facID": 4465,
      "ferences": 4466,
      "▁shipment": 4467,
      "inese": 4468,
      "voices": 4469,
      "▁\"Liwen": 4470,
      "▁T1.block": 4471,
      "▁oppose": 4472,
      "▁T1.ArtistId": 4473,
      "▁mountain_alt": 4474,
      "▁\"Tenn": 4475,
      "▁T1.suppli": 4476,
      "▁T1.scientist": 4477,
      "▁T2.Allergy": 4478,
      "▁T2.Album": 4479,
      "alendar": 4480,
      "▁descending?\n": 4481,
      "▁\"bethel": 4482,
      "▁\"Noah": 4483,
      "liminated": 4484,
      "rs_description": 4485,
      "_Code\n": 4486,
      "▁smith": 4487,
      "▁T1.Shop_ID": 4488,
      "▁Ref_document": 4489,
      "Tourist_Details": 4490,
      "chool_ID": 4491,
      "0000\n": 4492,
      "▁\"John": 4493,
      "▁'Ch": 4494,
      "ldi\";\n": 4495,
      "andidate": 4496,
      "▁lesson": 4497,
      "▁Research": 4498,
      "▁parsing\"": 4499,
      "icine_id": 4500,
      "_item": 4501,
      "▁t2.store_id": 4502,
      "_api_id": 4503,
      "_Type_Code\n": 4504,
      "_high_de": 4505,
      "afe": 4506,
      "ernhard": 4507,
      "▁Order_items": 4508,
      "▁other_details\n": 4509,
      "▁'History": 4510,
      "▁available_policies": 4511,
      "▁T1.statement": 4512,
      "irculation": 4513,
      "▁billing_state": 4514,
      "▁\"pldi\";\n": 4515,
      "▁supplier": 4516,
      "▁T2.Employee": 4517,
      "▁T1.document_id": 4518,
      "▁tips": 4519,
      "▁T1.Country_id": 4520,
      "ised_by": 4521,
      "_documents": 4522,
      "▁Xiong\"": 4523,
      "▁sportname": 4524,
      "▁photos": 4525,
      "▁customer_addresses": 4526,
      "organization_id": 4527,
      "▁LastName": 4528,
      "▁T2.genre_id": 4529,
      "▁T1.prof_num": 4530,
      "▁Catalog_Cont": 4531,
      "ndergo": 4532,
      "vania": 4533,
      "▁9410": 4534,
      "▁HOTELS": 4535,
      "ikes_available": 4536,
      "rc_apid": 4537,
      "▁kentucky\n": 4538,
      "▁california\n": 4539,
      "▁ENROL": 4540,
      "▁T2.RoomId": 4541,
      "▁Organisations": 4542,
      "▁Grants": 4543,
      ".shipping_agent": 4544,
      "▁pldi": 4545,
      "▁Ladner": 4546,
      "advisor": 4547,
      "nsylvania": 4548,
      "▁mountain_altitude": 4549,
      "▁\"Tennis": 4550,
      "▁Ref_document_types": 4551,
      "_high_degree": 4552,
      "8\n": 4553,
      "Number": 4554,
      "US": 4555,
      "Unit": 4556,
      "VEL": 4557,
      "_hi": 4558,
      "_up": 4559,
      "_Or": 4560,
      "_accelerator": 4561,
      "_Quantity": 4562,
      "cip": 4563,
      "han": 4564,
      "held": 4565,
      "ix": 4566,
      "k\n": 4567,
      "market": 4568,
      "nationality": 4569,
      "por": 4570,
      "ving": 4571,
      "▁ro": 4572,
      "▁vehicle": 4573,
      "▁ticket": 4574,
      "▁Tar": 4575,
      "▁artwork": 4576,
      "▁Author": 4577,
      "▁Sci": 4578,
      "▁FDA": 4579,
      "orld": 4580,
      "▁cross": 4581,
      "▁On": 4582,
      "dent": 4583,
      "▁wyoming": 4584,
      "▁Boston": 4585,
      "len": 4586,
      "▁name?\n": 4587,
      "▁feat": 4588,
      "rad": 4589,
      "▁t1.title": 4590,
      "▁brian": 4591,
      "▁Daniel": 4592,
      "▁Databases": 4593,
      "▁syntactic": 4594,
      "▁his": 4595,
      "▁Luke": 4596,
      "▁London": 4597,
      "lace": 4598,
      "lack": 4599,
      "▁Category": 4600,
      "gether": 4601,
      "_client": 4602,
      "▁t3.s": 4603,
      "▁nominated": 4604,
      "▁has?\n": 4605,
      "▁having": 4606,
      "▁(DISTINCT": 4607,
      "▁report": 4608,
      "▁requested": 4609,
      "▁Policy": 4610,
      "ers\n": 4611,
      "▁lap": 4612,
      "▁product.\n": 4613,
      "▁grap": 4614,
      "▁city,": 4615,
      "▁How_to_Get_There": 4616,
      "mploy": 4617,
      "amage": 4618,
      "ays_": 4619,
      "▁Ex": 4620,
      "_district": 4621,
      "▁last_up": 4622,
      "▁average.\n": 4623,
      "▁200\n": 4624,
      "elations": 4625,
      "▁2011": 4626,
      "▁Noah": 4627,
      "▁prof": 4628,
      "▁populations": 4629,
      "▁5;\n": 4630,
      "▁together": 4631,
      "_birth": 4632,
      "▁area\n": 4633,
      "▁also": 4634,
      "▁bordering": 4635,
      "▁artist\n": 4636,
      "▁t5.title": 4637,
      "▁max(age)": 4638,
      "▁party_event": 4639,
      "_Payment": 4640,
      "▁player\n": 4641,
      "▁\"Daniel": 4642,
      "▁\"Databases": 4643,
      "▁publishers": 4644,
      "▁\"Luke": 4645,
      "ost_city": 4646,
      "▁teacher": 4647,
      "▁exist": 4648,
      "000.\n": 4649,
      "▁2000?\n": 4650,
      "▁regional": 4651,
      "▁\"brian": 4652,
      "ompany_name": 4653,
      "▁\"syntactic": 4654,
      "▁Texas": 4655,
      "▁Invoices": 4656,
      "▁\"UK": 4657,
      "▁Jagadish\";\n": 4658,
      "▁books": 4659,
      "▁store_district": 4660,
      "▁districts": 4661,
      "_Met": 4662,
      "_chain": 4663,
      "▁'Smith": 4664,
      "▁Album": 4665,
      "_history": 4666,
      "▁exhibitions": 4667,
      "▁T2.Service_Type_Code": 4668,
      "▁star_rating": 4669,
      "▁sex\n": 4670,
      "▁Team\n": 4671,
      "▁record.\n": 4672,
      "▁builders": 4673,
      "ruction": 4674,
      "▁Making": 4675,
      "upportRep": 4676,
      "AME\n": 4677,
      "▁Apartment_Building": 4678,
      "▁\"parsing\"": 4679,
      "▁Michigan\";\n": 4680,
      "▁spent": 4681,
      "oney_Re": 4682,
      "▁recently?\n": 4683,
      "▁farm_competition": 4684,
      "letion": 4685,
      "udience": 4686,
      "▁weeks": 4687,
      "▁curless\"": 4688,
      "▁T1.staff_name": 4689,
      "_product_c": 4690,
      "▁date_of_birth": 4691,
      "▁engineer": 4692,
      "▁percentage": 4693,
      "▁investors": 4694,
      "▁\"NIPS\";\n": 4695,
      "▁advisors": 4696,
      "s_Restaurant": 4697,
      "▁COUNT(DISTINCT": 4698,
      "elivery": 4699,
      "▁visited": 4700,
      "▁\"convolution\";\n": 4701,
      "rofessor": 4702,
      "_store_chain": 4703,
      "▁performances": 4704,
      "▁Catalog_Contents": 4705,
      "_Orders": 4706,
      "_client_accelerator": 4707,
      "ays_held": 4708,
      "▁last_update\n": 4709,
      ":5": 4710,
      ":00": 4711,
      "Code": 4712,
      "DU": 4713,
      "D_IN": 4714,
      "EM": 4715,
      "_act": 4716,
      "_location": 4717,
      "_Item": 4718,
      "_result": 4719,
      "aken": 4720,
      "border": 4721,
      "cil": 4722,
      "com": 4723,
      "dit": 4724,
      "floor": 4725,
      "lou": 4726,
      "lno": 4727,
      "mageNet": 4728,
      "ped": 4729,
      "pri": 4730,
      "ron": 4731,
      "s\"": 4732,
      "uis": 4733,
      "▁+": 4734,
      "▁ohio": 4735,
      "▁The": 4736,
      "atic": 4737,
      "▁this": 4738,
      "idity": 4739,
      "ROY": 4740,
      "▁Sriv": 4741,
      "inations": 4742,
      "or_id": 4743,
      "ored": 4744,
      "▁crs_code": 4745,
      "▁carri": 4746,
      "▁clou": 4747,
      "esame": 4748,
      "essed": 4749,
      "itend": 4750,
      "▁platform": 4751,
      "▁often": 4752,
      "▁T1.product_name": 4753,
      "▁T1.dept_name": 4754,
      "▁T1.organisation_type": 4755,
      "▁T1.artist_id": 4756,
      "▁T1.member_id": 4757,
      "▁T2.T": 4758,
      "▁T2.room": 4759,
      "▁T2.alid": 4760,
      "▁T2.region_id": 4761,
      "▁T2.eid": 4762,
      "▁T2.Tourist_ID": 4763,
      "▁T2.Lname": 4764,
      "▁T2.advisor": 4765,
      "▁mal": 4766,
      "▁mID": 4767,
      "rote": 4768,
      "lect": 4769,
      "▁stop": 4770,
      "▁stud": 4771,
      "▁studi": 4772,
      "▁describ": 4773,
      "▁fus": 4774,
      "▁flow": 4775,
      "raz": 4776,
      "ing'\n": 4777,
      "▁t2.mid": 4778,
      "umidity": 4779,
      "▁eid": 4780,
      "▁edit": 4781,
      "▁GEN": 4782,
      "▁Grape": 4783,
      "_color": 4784,
      "▁t3.release_year": 4785,
      "edication": 4786,
      "▁14": 4787,
      "right": 4788,
      "channel": 4789,
      "ird": 4790,
      "▁Har": 4791,
      "▁23": 4792,
      "ens": 4793,
      "▁Pro": 4794,
      "▁'W": 4795,
      "▁'19": 4796,
      "▁customer_details": 4797,
      "▁customer_contact": 4798,
      "▁T3.b": 4799,
      "▁T3.f": 4800,
      "▁T3.SSN": 4801,
      "▁T3.activity_name": 4802,
      "▁mexic": 4803,
      "▁t4.kid": 4804,
      "iew": 4805,
      "▁product_name\n": 4806,
      "▁product_category": 4807,
      "ice_ID": 4808,
      "▁ids.\n": 4809,
      "venues": 4810,
      "laylist": 4811,
      "amir": 4812,
      "amous": 4813,
      "▁each?\n": 4814,
      "_type_name": 4815,
      "▁T2.campus": 4816,
      "▁T2.company_id": 4817,
      "_data": 4818,
      "▁text": 4819,
      "elho": 4820,
      "▁t2.color_code": 4821,
      "▁avg(product_price)": 4822,
      "▁avg(balance)": 4823,
      "hip_ID": 4824,
      "▁publications": 4825,
      "▁t1.catalog": 4826,
      "▁T1.name\n": 4827,
      "▁date_of_": 4828,
      "▁uni": 4829,
      "▁join": 4830,
      "_COD": 4831,
      "▁View": 4832,
      "osse": 4833,
      "_Title": 4834,
      "_Theme": 4835,
      "_budget": 4836,
      "_in_B": 4837,
      "▁sec": 4838,
      "ilm_ID": 4839,
      "oints)": 4840,
      "qual": 4841,
      "ured": 4842,
      "▁title\n": 4843,
      "▁10000": 4844,
      "▁from?\n": 4845,
      "▁\"Cat": 4846,
      "▁\"Cancelled": 4847,
      "▁account_id": 4848,
      "▁school_code": 4849,
      "▁max(T2.": 4850,
      "▁staff?\n": 4851,
      "▁T1.director": 4852,
      "▁party\n": 4853,
      "_Points": 4854,
      "▁\"Smith": 4855,
      "▁Report": 4856,
      "▁clubname": 4857,
      "▁\"Pro": 4858,
      "▁\"PVLDB\";\n": 4859,
      "▁cities?\n": 4860,
      "▁\"Making": 4861,
      "▁T1.Claim_id": 4862,
      "▁195": 4863,
      "▁dorm_name": 4864,
      "stu_gpa": 4865,
      "▁team_id\n": 4866,
      "▁T1.Artist_ID": 4867,
      "▁T1.Address_ID": 4868,
      "▁T4.dept_code": 4869,
      "▁T2.Artist_ID": 4870,
      "▁40": 4871,
      "▁Product_Price": 4872,
      "▁T2.budget": 4873,
      "▁shamir": 4874,
      "▁10.\n": 4875,
      "▁lowest_point": 4876,
      "▁\"NY": 4877,
      "▁T1.Service_Type_Code": 4878,
      "▁T1.SupportRep": 4879,
      "ouncil": 4880,
      "▁catalog_entry_name": 4881,
      "▁emails": 4882,
      "estival_ID": 4883,
      "region_name": 4884,
      "▁Compute": 4885,
      "▁acc_type": 4886,
      "▁appelations": 4887,
      "▁750": 4888,
      "chnician_ID": 4889,
      "▁T1.Manufacturer": 4890,
      "▁balance.\n": 4891,
      "_channel": 4892,
      "_head": 4893,
      "ohad": 4894,
      "▁T2.treatment": 4895,
      "▁t1.store_id": 4896,
      "▁Smith\";\n": 4897,
      "▁T2.District": 4898,
      "▁T2.DNO": 4899,
      "▁avg(T1.stars)": 4900,
      "▁T1.Date": 4901,
      "▁Zin": 4902,
      "resentative": 4903,
      "▁musicals": 4904,
      "▁american": 4905,
      "_win": 4906,
      "▁Finance": 4907,
      "▁SUM(": 4908,
      "▁t1.population": 4909,
      "▁T1.track_id": 4910,
      "▁T2.Winning_Aircraft": 4911,
      "_assigned": 4912,
      "▁ref_product_c": 4913,
      "▁T1.Title": 4914,
      "▁T2.GenreId": 4915,
      "▁T1.County_id": 4916,
      "▁inter": 4917,
      "rivate": 4918,
      "▁VISITORS": 4919,
      "▁listed?\n": 4920,
      "▁T2.investor_id": 4921,
      "▁\"ImageNet": 4922,
      "rtwork_ID": 4923,
      "LED_IN": 4924,
      "▁stu_gpa": 4925,
      "▁T2.city_id": 4926,
      "▁T1.project_details": 4927,
      "▁Coelho": 4928,
      "▁County_name": 4929,
      "▁Imitation": 4930,
      "▁ImageNet": 4931,
      "▁adv": 4932,
      "▁T2.order_status": 4933,
      "ivesh": 4934,
      "▁operate": 4935,
      "unctional_": 4936,
      "▁trained_in": 4937,
      "▁Competition_type": 4938,
      "▁\"wyoming\";\n": 4939,
      "▁Open_Year": 4940,
      "▁T1.account_id": 4941,
      "▁middle": 4942,
      "▁injury_acc": 4943,
      "▁T2.medicine_id": 4944,
      "▁\"ACL\";\n": 4945,
      "▁Official": 4946,
      "resolution)": 4947,
      "▁Plays_games": 4948,
      "▁circuits": 4949,
      "▁T2.decision": 4950,
      "▁T3.Title": 4951,
      "▁t2.customer_details": 4952,
      "▁web_client_accelerator": 4953,
      "▁catalog_contents": 4954,
      "▁Documents_with_expenses": 4955,
      "anager": 4956,
      "▁networks": 4957,
      "▁roller_coaster": 4958,
      "▁Drama_Workshop_Groups": 4959,
      "▁EMPLOYEE": 4960,
      "▁typical": 4961,
      "ansas": 4962,
      "▁Road": 4963,
      "cessing": 4964,
      "_purchased": 4965,
      "_opened": 4966,
      "astav": 4967,
      "ISTATS": 4968,
      "▁ENROLLED_IN": 4969,
      "_Method": 4970,
      "DUCT": 4971,
      "▁Srivastav": 4972,
      "▁carriers": 4973,
      "▁cloud": 4974,
      "itendra": 4975,
      "▁malik": 4976,
      "▁editors": 4977,
      "▁'198": 4978,
      "▁customer_contact_channel": 4979,
      "laylist_id": 4980,
      "stu_gpa)": 4981,
      "▁T1.SupportRepId": 4982,
      "▁ref_product_categories": 4983,
      "▁injury_accident": 4984,
      "DP": 4985,
      "_author": 4986,
      "_line_": 4987,
      "a'": 4988,
      "bra": 4989,
      "fend": 4990,
      "nrollment": 4991,
      "py": 4992,
      "towns": 4993,
      "y'": 4994,
      "yo": 4995,
      "mers": 4996,
      "▁Time": 4997,
      "▁TIM": 4998,
      "eries": 4999,
      "▁Airport": 5000,
      "▁call": 5001,
      "esse": 5002,
      "2.\n": 5003,
      "itt": 5004,
      "oute": 5005,
      "ana": 5006,
      "ange": 5007,
      "▁wrote": 5008,
      "▁machine": 5009,
      "icines": 5010,
      "▁Book": 5011,
      "▁Birth": 5012,
      "▁t1.user_id": 5013,
      "isc": 5014,
      "▁bath": 5015,
      "▁boulder": 5016,
      "▁t2.address_id": 5017,
      "▁su": 5018,
      "▁Cre": 5019,
      "▁Cas": 5020,
      "▁Ge": 5021,
      "▁Guest": 5022,
      "▁GDP": 5023,
      "▁t3.jid": 5024,
      "edia": 5025,
      "enue": 5026,
      "enant": 5027,
      "▁People_ID\n": 5028,
      "▁'E": 5029,
      "▁'mid": 5030,
      "▁'200": 5031,
      "▁number.\n": 5032,
      "ers?\n": 5033,
      "ers.\n": 5034,
      "acher_id": 5035,
      "▁Market": 5036,
      "▁Manufactur": 5037,
      "▁Maintenance": 5038,
      "ieut": 5039,
      "▁products\n": 5040,
      "▁gross": 5041,
      "▁goalie": 5042,
      "rank": 5043,
      "imate": 5044,
      "▁order_item": 5045,
      "▁most?\n": 5046,
      "ressure": 5047,
      "▁round": 5048,
      "_doll": 5049,
      "▁prote": 5050,
      "onent": 5051,
      "▁date,": 5052,
      "itional": 5053,
      "ivis": 5054,
      "ivity": 5055,
      "_full": 5056,
      "iana": 5057,
      "▁to.\n": 5058,
      "_Town": 5059,
      "_bal": 5060,
      "_of_customer": 5061,
      "oody": 5062,
      "_in_doll": 5063,
      "▁Student.": 5064,
      "▁Customer_Orders": 5065,
      "ttraction": 5066,
      "▁age\n": 5067,
      "▁International": 5068,
      "_Document": 5069,
      "▁accounts?\n": 5070,
      "▁max(YEAR)": 5071,
      "▁staff_id\n": 5072,
      "_share": 5073,
      "vent_ID": 5074,
      "▁t3.year;\n": 5075,
      "▁\"Dallas": 5076,
      "▁\"London": 5077,
      "▁company\n": 5078,
      "▁\"The": 5079,
      "▁journals": 5080,
      "▁T1.school_id": 5081,
      "▁T2.Aircraft": 5082,
      "▁45": 5083,
      "▁job_history": 5084,
      "_Email": 5085,
      "▁transaction_type": 5086,
      "▁transactions.\n": 5087,
      "▁transaction_type_code": 5088,
      "▁\"boulder": 5089,
      "▁medicines": 5090,
      "▁assessment": 5091,
      "▁Invoice": 5092,
      "pendent": 5093,
      "-06": 5094,
      "▁credit_score": 5095,
      "▁hosted": 5096,
      "▁parsing\n": 5097,
      "▁birth_year": 5098,
      "▁birth_city": 5099,
      "▁hometowns": 5100,
      "▁captains": 5101,
      "▁T2.Height": 5102,
      "adium_id": 5103,
      "▁banks": 5104,
      "▁Alice": 5105,
      "▁1990": 5106,
      "▁gymnasts": 5107,
      "▁stadiums": 5108,
      "_of_lo": 5109,
      "▁belongs": 5110,
      "▁formats": 5111,
      "ember_ID": 5112,
      "▁characteristics": 5113,
      "▁Fname\n": 5114,
      "_rate)": 5115,
      "▁Answering\n": 5116,
      "▁famous": 5117,
      "royed_by": 5118,
      "▁perpetrators": 5119,
      "_History": 5120,
      "▁playlist_track": 5121,
      "▁themes": 5122,
      "_Authorised_by": 5123,
      "▁bikes": 5124,
      "▁Sex\n": 5125,
      "▁Payment_Method": 5126,
      "_range": 5127,
      "▁debate": 5128,
      "▁photo": 5129,
      "▁'No": 5130,
      "▁Pop\"\n": 5131,
      "▁\"wyoming\"": 5132,
      "reasing": 5133,
      "ustralian": 5134,
      "ustralia": 5135,
      "▁happy": 5136,
      "▁Visits_Restaurant": 5137,
      "▁tweets": 5138,
      "▁screen_mode": 5139,
      "▁\"california\";\n": 5140,
      "▁Assets": 5141,
      "talian": 5142,
      "▁Zettlemoyer\";\n": 5143,
      "▁Activity": 5144,
      "▁minister": 5145,
      "▁\"Texas": 5146,
      "▁prerequisite": 5147,
      "useum": 5148,
      "▁acceptance": 5149,
      "ailway_ID": 5150,
      "▁performed": 5151,
      "ruction_Authorised_by": 5152,
      "▁described": 5153,
      "amous_Title": 5154,
      "▁unique": 5155,
      "_in_Billion": 5156,
      "ediaType": 5157,
      "ieutenant": 5158,
      "▁T2.Aircraft_ID": 5159,
      "_Email_Address": 5160,
      "▁\"boulder\";\n": 5161,
      "-8": 5162,
      ".com": 5163,
      "16": 5164,
      "2\"\n": 5165,
      "3\"": 5166,
      "4\"": 5167,
      "6?\n": 5168,
      "600": 5169,
      "7\n": 5170,
      "7?\n": 5171,
      "96": 5172,
      "@ex": 5173,
      "Amount": 5174,
      "Class\n": 5175,
      "LP": 5176,
      "LOC": 5177,
      "PA": 5178,
      "Que": 5179,
      "TER": 5180,
      "VENT": 5181,
      "Zach": 5182,
      "_staff": 5183,
      "_host": 5184,
      "_area": 5185,
      "aud": 5186,
      "bb": 5187,
      "cy": 5188,
      "cade": 5189,
      "eg": 5190,
      "fir": 5191,
      "fgh": 5192,
      "gra": 5193,
      "h\n": 5194,
      "hav": 5195,
      "ior": 5196,
      "ker": 5197,
      "lan": 5198,
      "lar": 5199,
      "mont": 5200,
      "number": 5201,
      "ovies": 5202,
      "page": 5203,
      "ru": 5204,
      "syc": 5205,
      "troller": 5206,
      "ura": 5207,
      "war": 5208,
      "zz": 5209,
      "▁kid": 5210,
      "▁ID\n": 5211,
      "er'": 5212,
      "erb": 5213,
      "atte": 5214,
      "idship": 5215,
      "▁Ar": 5216,
      "▁Austin": 5217,
      "▁Spring": 5218,
      "▁Syst": 5219,
      "CTV": 5220,
      "▁Far": 5221,
      "▁these": 5222,
      "▁car": 5223,
      "▁cell": 5224,
      "nament": 5225,
      "▁Wall": 5226,
      "onol": 5227,
      "on\"\n": 5228,
      "onfir": 5229,
      "its": 5230,
      "▁pass": 5231,
      "rea": 5232,
      "anist": 5233,
      "an\";\n": 5234,
      "ofar": 5235,
      "degrees": 5236,
      "▁T1.H": 5237,
      "▁T1.attendance": 5238,
      "▁T1.alid": 5239,
      "▁T1.job": 5240,
      "▁white": 5241,
      "▁T2.party": 5242,
      "▁T2.account": 5243,
      "▁T2.host": 5244,
      "▁T2.artist_id": 5245,
      "▁T2.role_code": 5246,
      "▁T2.location_id": 5247,
      "▁T2.Tourist_Details": 5248,
      "▁\"v": 5249,
      "▁\"y": 5250,
      "▁\"St": 5251,
      "▁\"VLDB\";\n": 5252,
      "roved": 5253,
      "ley": 5254,
      "al_name": 5255,
      "hology": 5256,
      "▁drama": 5257,
      "▁facult": 5258,
      "▁t1.sex": 5259,
      "▁brand": 5260,
      "▁in\n": 5261,
      "▁Des": 5262,
      "▁Dallas": 5263,
      "veig": 5264,
      "▁t2.document": 5265,
      "▁t2.date": 5266,
      "▁t2.district_id": 5267,
      "▁hardware": 5268,
      "▁LE": 5269,
      "▁LName": 5270,
      "▁Linda": 5271,
      "lant": 5272,
      "ustries": 5273,
      "▁Came": 5274,
      "▁Circulation": 5275,
      "▁equal": 5276,
      "▁Gam": 5277,
      "llow": 5278,
      "_credit": 5279,
      "_committee": 5280,
      "▁t3.product_id": 5281,
      "▁t3.address_id": 5282,
      "▁t3.district_id": 5283,
      "berton": 5284,
      "lose": 5285,
      "▁nature": 5286,
      "▁nurse": 5287,
      "▁Hometown": 5288,
      "olveig": 5289,
      "opies": 5290,
      "ournament": 5291,
      "▁Park": 5292,
      "▁decision": 5293,
      "▁'f": 5294,
      "▁'St": 5295,
      "▁'Zach": 5296,
      "urcot": 5297,
      "▁state?\n": 5298,
      "▁customer_status_code": 5299,
      "▁T3.D": 5300,
      "▁T3.aid": 5301,
      "▁T3.rID": 5302,
      "▁T3.Tourist_ID": 5303,
      "ocr": 5304,
      "ulu": 5305,
      "ulian": 5306,
      "ow_to_Get_There": 5307,
      "▁t4.user_id": 5308,
      "▁product?\n": 5309,
      "▁gname": 5310,
      "▁gpa": 5311,
      "ore_name": 5312,
      "imal": 5313,
      "amberton": 5314,
      "acct": 5315,
      "ayana": 5316,
      "▁EVENT": 5317,
      "▁20.\n": 5318,
      "▁prom": 5319,
      "▁property": 5320,
      "▁progra": 5321,
      "▁t2.catalog": 5322,
      "▁customers_policies": 5323,
      "▁avg(salary)": 5324,
      "_not": 5325,
      "ccv": 5326,
      "ccredit": 5327,
      "▁population.\n": 5328,
      "▁members.\n": 5329,
      "all'": 5330,
      "▁univers": 5331,
      "▁undergo": 5332,
      "_store_id": 5333,
      "▁5000\n": 5334,
      "▁songs?\n": 5335,
      "_of_me": 5336,
      "omputer": 5337,
      "▁course?\n": 5338,
      "_Ass": 5339,
      "ersonal_name": 5340,
      "▁title,": 5341,
      "orses": 5342,
      "▁t5.aid": 5343,
      "▁t5.msid": 5344,
      "ample": 5345,
      "▁sum(revenue)": 5346,
      "ransaction_id": 5347,
      "▁\"Colum": 5348,
      "▁\"Confir": 5349,
      "▁T2.project": 5350,
      "▁T1.player": 5351,
      "▁party_host": 5352,
      "_Population": 5353,
      "▁\"Ste": 5354,
      "▁\"Spring": 5355,
      "▁\"Solveig": 5356,
      "ollege_id": 5357,
      "_man": 5358,
      "▁\"Professor": 5359,
      "▁airports?\n": 5360,
      "▁building\n": 5361,
      "▁\"As": 5362,
      "▁\"App": 5363,
      "▁T1.Color": 5364,
      "▁shipping": 5365,
      "▁shipments": 5366,
      "▁\"Dayana": 5367,
      "▁T2.dst_apid": 5368,
      "▁Document_locations": 5369,
      "▁\"Lind": 5370,
      "▁T1.bname": 5371,
      "_rental": 5372,
      "▁phone_number": 5373,
      "iloofar": 5374,
      "ervice_name": 5375,
      "redit_score": 5376,
      "▁players.\n": 5377,
      "▁journal_committee": 5378,
      "▁T1.subject_id": 5379,
      "▁T2.Address_ID": 5380,
      "amount_p": 5381,
      "▁2000.\n": 5382,
      "▁dept_code": 5383,
      "▁dept_code\n": 5384,
      "▁t3.city": 5385,
      "▁region_name": 5386,
      "▁T2.school_id": 5387,
      "▁T2.src_apid": 5388,
      "▁times.\n": 5389,
      "▁'ACCT-211": 5390,
      "rs_credit": 5391,
      "▁Teach": 5392,
      "▁training": 5393,
      "▁train_station": 5394,
      "▁rank\n": 5395,
      "▁T1.School_ID": 5396,
      "▁takes": 5397,
      "▁claim_head": 5398,
      "▁start_station_name": 5399,
      "▁budget_type_code": 5400,
      "▁cards": 5401,
      "ark_id": 5402,
      "▁\"Rock": 5403,
      "▁catalog_level": 5404,
      "▁\"Fail": 5405,
      "▁2010.\n": 5406,
      "hibitor": 5407,
      "▁T2.start": 5408,
      "hone\n": 5409,
      "▁accessed": 5410,
      "▁election\n": 5411,
      "▁zip_postcode": 5412,
      "epresentative": 5413,
      "▁store_id": 5414,
      "▁737": 5415,
      "▁T1.Musical_ID": 5416,
      "▁balance?\n": 5417,
      "▁homepage": 5418,
      "▁1850": 5419,
      "▁industries": 5420,
      "▁China": 5421,
      "▁Christopher": 5422,
      "▁'Ph.D.": 5423,
      "▁'Spring": 5424,
      "▁T2.Host_city": 5425,
      "▁T2.How_to_Get_There": 5426,
      "▁\"colorad": 5427,
      "▁University\"\n": 5428,
      "▁Alto": 5429,
      "▁manager_id": 5430,
      "cores": 5431,
      "▁colorad": 5432,
      "alter": 5433,
      "raphics": 5434,
      "▁useracct": 5435,
      "▁t1.state": 5436,
      "▁T1.Grape": 5437,
      "▁T1.GenreId": 5438,
      "▁T1.stu_fname": 5439,
      "▁T1.DNO": 5440,
      "▁Player\n": 5441,
      "▁Player_Attributes": 5442,
      "▁climb": 5443,
      "▁details.\n": 5444,
      "location_code": 5445,
      "_with": 5446,
      "▁'F'": 5447,
      "▁'Fall'": 5448,
      "▁t2.songid": 5449,
      "▁1980": 5450,
      "▁1989": 5451,
      "▁\"nature": 5452,
      "▁12000": 5453,
      "ielberg": 5454,
      "▁T1.team_id_win": 5455,
      "▁T1.employee_id": 5456,
      "legate": 5457,
      "▁Department": 5458,
      "AME": 5459,
      "▁T1.customer_details": 5460,
      "▁runs\n": 5461,
      "ditor_ID": 5462,
      "▁\"Christopher": 5463,
      "attribute": 5464,
      "▁T1.Team": 5465,
      "▁T2.Grape": 5466,
      "▁T2.Election_Cycle": 5467,
      "▁system": 5468,
      "▁\"On": 5469,
      "hours)": 5470,
      "okyo": 5471,
      "▁personal_name": 5472,
      "▁T2.guest": 5473,
      "▁journalists": 5474,
      "▁T1.EMP": 5475,
      "▁T2.invoice": 5476,
      "achine_id": 5477,
      "▁T1.booking_status_code": 5478,
      "▁T2.staff_address_id": 5479,
      "▁individuals": 5480,
      "▁T2.document_id": 5481,
      "Order_Quantity": 5482,
      "▁t1.songid": 5483,
      "▁T3.songid": 5484,
      "▁groups": 5485,
      "ardware_M": 5486,
      "▁Coast": 5487,
      "▁usable\";\n": 5488,
      "▁earn": 5489,
      "_Log": 5490,
      "▁affiliated_with": 5491,
      "_section": 5492,
      "▁Robel": 5493,
      "▁avg(price)": 5494,
      "▁communications\";\n": 5495,
      "▁Settlements": 5496,
      "▁Manning\";\n": 5497,
      "▁FirstName": 5498,
      "▁premises": 5499,
      "▁camera_lens": 5500,
      "rain_id": 5501,
      "▁All_documents": 5502,
      "▁Select": 5503,
      "▁Shark": 5504,
      "▁Shop_Name": 5505,
      "▁pitstop": 5506,
      "roblem_id": 5507,
      "▁T1.City_Town": 5508,
      "▁denomination": 5509,
      "▁image": 5510,
      "▁Type\n": 5511,
      "▁T2.apt_number": 5512,
      "▁'yes'\n": 5513,
      "_in_Events": 5514,
      "▁Date_Claim_Made": 5515,
      "▁springfield\n": 5516,
      "eremony": 5517,
      "▁representatives": 5518,
      "_outstanding": 5519,
      "▁Airlines": 5520,
      "▁ACCT-211?\n": 5521,
      "▁T2.job_title": 5522,
      "▁T2.languages": 5523,
      "andidate_id": 5524,
      "▁T1.statement_id": 5525,
      "ikes_available)": 5526,
      "_hire": 5527,
      "▁roles": 5528,
      "▁party_events": 5529,
      "▁Apartment_Buildings": 5530,
      "oney_Requested": 5531,
      "▁studying": 5532,
      "▁studios": 5533,
      "▁GENRE": 5534,
      "channel_id": 5535,
      "▁Harris": 5536,
      "_data_type": 5537,
      "▁Zinho": 5538,
      "▁customer_contact_channels": 5539,
      "▁\"Dallas\"": 5540,
      "▁playlist_tracks": 5541,
      "▁Payment_Method_Code": 5542,
      "@example": 5543,
      "LOCK": 5544,
      "fghanist": 5545,
      "havior": 5546,
      "sychology": 5547,
      "idshipman": 5548,
      "onolulu": 5549,
      "▁T2.host_city": 5550,
      "▁faculties": 5551,
      "▁Circulation_History": 5552,
      "urcotte": 5553,
      "▁programs": 5554,
      "▁universities": 5555,
      "▁\"Confirmed": 5556,
      "▁737-8": 5557,
      "▁T1.team_id_winner": 5558,
      "▁pitstops": 5559,
      "%'": 5560,
      ".employee": 5561,
      "3-1": 5562,
      ":0": 5563,
      "D)": 5564,
      "RES": 5565,
      "UR": 5566,
      "_In": 5567,
      "budget": 5568,
      "cholarship": 5569,
      "dom": 5570,
      "ditional": 5571,
      "gress": 5572,
      "high": 5573,
      "ham": 5574,
      "i\n": 5575,
      "iB": 5576,
      "iled": 5577,
      "ls": 5578,
      "lor": 5579,
      "long": 5580,
      "natch": 5581,
      "n't": 5582,
      "o\";\n": 5583,
      "s_T": 5584,
      "s\"?\n": 5585,
      "tany": 5586,
      "▁keyphra": 5587,
      "▁task": 5588,
      "▁t7.": 5589,
      "▁Track": 5590,
      "▁Theme": 5591,
      "idence": 5592,
      "▁audio": 5593,
      "▁App": 5594,
      "▁Sales": 5595,
      "▁Score": 5596,
      "inition": 5597,
      "▁Fault": 5598,
      "▁categories": 5599,
      "▁crime": 5600,
      "on\n": 5601,
      "onom": 5602,
      "▁pet": 5603,
      "▁paid": 5604,
      "▁pages": 5605,
      "outh": 5606,
      "ought": 5607,
      "an\n": 5608,
      "den": 5609,
      "▁T2.re": 5610,
      "▁T2.Location": 5611,
      "▁\"or": 5612,
      "ros": 5613,
      "▁name)": 5614,
      "▁structure": 5615,
      "▁done": 5616,
      "▁fastest": 5617,
      "▁bridge": 5618,
      "▁bought": 5619,
      "▁DEPT": 5620,
      "▁Director": 5621,
      "▁Divis": 5622,
      "ingdom": 5623,
      "▁t2.w": 5624,
      "▁t2.kid": 5625,
      "▁sing": 5626,
      "▁surname": 5627,
      "▁skill": 5628,
      "lab": 5629,
      "lax": 5630,
      "▁Class": 5631,
      "ments\n": 5632,
      "▁GPA": 5633,
      "_cities": 5634,
      "▁t3.st": 5635,
      "los": 5636,
      "loors": 5637,
      "edu": 5638,
      "ed?\n": 5639,
      "articipant": 5640,
      "▁25\n": 5641,
      "▁reference": 5642,
      "enrolment": 5643,
      "▁Pr": 5644,
      "▁Ph.D.": 5645,
      "▁number,": 5646,
      "▁have?": 5647,
      "▁customers\n": 5648,
      "▁T3.t": 5649,
      "▁T3.order_id": 5650,
      "▁Madis": 5651,
      "active": 5652,
      "actly": 5653,
      "asset": 5654,
      "▁city)": 5655,
      "▁city.\n": 5656,
      "partment_Ass": 5657,
      "range": 5658,
      "▁orders.\n": 5659,
      "ests_T": 5660,
      "▁route": 5661,
      "acility": 5662,
      "rittany": 5663,
      "▁Elimination": 5664,
      "▁compatible": 5665,
      "▁30\n": 5666,
      "alls": 5667,
      "▁employees?\n": 5668,
      "_Comp": 5669,
      "▁Venue": 5670,
      "▁50.\n": 5671,
      "_Thing": 5672,
      "_Tests_T": 5673,
      "_brows": 5674,
      "_of_Thing": 5675,
      "_in_percent": 5676,
      "▁Retri": 5677,
      "▁Student_Tests_T": 5678,
      "▁age?\n": 5679,
      "▁100?\n": 5680,
      "▁UK": 5681,
      "▁\"Canad": 5682,
      "▁account.\n": 5683,
      "▁school\n": 5684,
      "▁schools.\n": 5685,
      "▁party.\n": 5686,
      "▁\"Pass": 5687,
      "▁price_range": 5688,
      "▁T1.fault": 5689,
      "▁\"Madis": 5690,
      "▁airport_a": 5691,
      "▁tracks.\n": 5692,
      "ervice_Types": 5693,
      "ervice_Type_Description": 5694,
      "▁mountain_name": 5695,
      "▁ratings": 5696,
      "▁station_company": 5697,
      "▁exactly": 5698,
      "▁players?\n": 5699,
      "ale'": 5700,
      "▁role_description": 5701,
      "▁\"sesame": 5702,
      "ilot_ID": 5703,
      "▁time.\n": 5704,
      "▁times?\n": 5705,
      "▁statuses": 5706,
      "▁'American": 5707,
      "▁conferred": 5708,
      "▁neural": 5709,
      "▁trains": 5710,
      "▁CLASS\n": 5711,
      "▁Ref_Document": 5712,
      "▁Kingdom": 5713,
      "▁markets": 5714,
      "▁companies.\n": 5715,
      "▁classroom\n": 5716,
      "▁\"Jap": 5717,
      "▁topics": 5718,
      "▁Faculty\n": 5719,
      "▁produc": 5720,
      "_amount_purchased": 5721,
      "▁Staff\n": 5722,
      "▁Staff_De": 5723,
      "▁T1.Market_ID": 5724,
      "▁home_city": 5725,
      "▁hometown": 5726,
      "_MiB": 5727,
      "▁Addresses\n": 5728,
      "▁yosemite": 5729,
      "▁2016\n": 5730,
      "▁\"%D": 5731,
      "▁competitions": 5732,
      "▁bank\n": 5733,
      "▁College\n": 5734,
      "▁T2.customer_id\n": 5735,
      "▁score.\n": 5736,
      "▁invoices.\n": 5737,
      "_contract": 5738,
      "▁exhibition_record": 5739,
      "▁channels": 5740,
      "institution": 5741,
      "ports_to": 5742,
      "▁log_entry": 5743,
      "▁Allergy_Type": 5744,
      "_rate\n": 5745,
      "▁genre?\n": 5746,
      "▁student_capacity": 5747,
      "▁membership_amount": 5748,
      "_compatible": 5749,
      "▁Nationality\n": 5750,
      "▁settlements": 5751,
      "▁longitude": 5752,
      "▁CVPR": 5753,
      "ighbourhood_name": 5754,
      "▁Payments": 5755,
      "▁Destroyed_by": 5756,
      "▁Destruction_Authorised_by": 5757,
      "▁grouped": 5758,
      "▁Ref_Service_Types": 5759,
      "neighbourhood_name": 5760,
      "▁Customer_Policies": 5761,
      "▁Amount_Claimed": 5762,
      "▁\"199": 5763,
      "_force": 5764,
      "▁happen": 5765,
      "▁hotels": 5766,
      "▁owned": 5767,
      "▁hours?\n": 5768,
      "▁monthly": 5769,
      "▁repair_assign": 5770,
      "▁Event_ID\n": 5771,
      "▁T1.Investor": 5772,
      "▁\"USA\"": 5773,
      "▁Spielberg": 5774,
      "▁accelerator_compatible": 5775,
      "▁\"food\"": 5776,
      "▁qualif": 5777,
      "▁estimation": 5778,
      "▁Ref_Shipping_Agents.shipping_agent": 5779,
      "▁'male'": 5780,
      "▁\"CVPR": 5781,
      "▁\"Robin": 5782,
      "▁Police_force": 5783,
      "▁featuring": 5784,
      "radu": 5785,
      "▁\"Databases\"": 5786,
      "▁fusion": 5787,
      "▁secretary": 5788,
      "▁interact": 5789,
      "▁boulder\n": 5790,
      "▁Systems": 5791,
      "▁\"yosemite": 5792,
      "▁EVENTS": 5793,
      "_of_measure": 5794,
      "▁Teachers": 5795,
      "epresentative_ID": 5796,
      "ardware_Model_name": 5797,
      "▁Fault_Log": 5798,
      "partment_Assign": 5799,
      "▁Student_Tests_Taken": 5800,
      "▁\"Madison\"": 5801,
      "▁airport_aircraft": 5802,
      "▁Staff_Department_Assign": 5803,
      "▁repair_assignment": 5804,
      "▁accelerator_compatible_brows": 5805,
      "%\"": 5806,
      "1'\n": 5807,
      "5\"\n": 5808,
      ":2": 5809,
      "AN": 5810,
      "A\"\n": 5811,
      "DEC": 5812,
      "EST": 5813,
      "MI": 5814,
      "MN": 5815,
      "Millisecond": 5816,
      "PES": 5817,
      "VERS": 5818,
      "Y\"\n": 5819,
      "ao": 5820,
      "au": 5821,
      "bur": 5822,
      "cog": 5823,
      "distance": 5824,
      "epartment": 5825,
      "gid": 5826,
      "head": 5827,
      "headquart": 5828,
      "hird": 5829,
      "iven": 5830,
      "ibility": 5831,
      "join": 5832,
      "lla": 5833,
      "lie": 5834,
      "mative": 5835,
      "nition": 5836,
      "oach": 5837,
      "os\n": 5838,
      "r\n": 5839,
      "sia": 5840,
      "uri": 5841,
      "win": 5842,
      "y!": 5843,
      "yer": 5844,
      "▁1.": 5845,
      "▁king": 5846,
      "▁0\n": 5847,
      "▁i_id": 5848,
      "▁tut": 5849,
      "▁tonnage": 5850,
      "mean": 5851,
      "▁TV": 5852,
      "▁Turing": 5853,
      "atrick": 5854,
      "▁artw": 5855,
      "▁At": 5856,
      "▁Artist": 5857,
      "▁Accredit": 5858,
      "▁Fall": 5859,
      "ames\n": 5860,
      "american": 5861,
      "ame_customer": 5862,
      "ntin": 5863,
      "orpor": 5864,
      "▁claimed": 5865,
      "▁cuis": 5866,
      "itz": 5867,
      "▁pName": 5868,
      "▁page": 5869,
      "▁poll": 5870,
      "▁police": 5871,
      "an\"\n": 5872,
      "▁James": 5873,
      "arking": 5874,
      "architect": 5875,
      "▁T1.O": 5876,
      "▁T1.emp_fname": 5877,
      "▁T1.author_id": 5878,
      "▁T1.role_code": 5879,
      "▁T1.uid": 5880,
      "▁T1.exhibition_id": 5881,
      "▁winery": 5882,
      "▁T2.B": 5883,
      "▁T2.V": 5884,
      "▁T2.le": 5885,
      "▁T2.St": 5886,
      "▁T2.address": 5887,
      "▁T2.rating": 5888,
      "▁T2.role": 5889,
      "▁T2.organisation_id": 5890,
      "▁T2.party_id": 5891,
      "▁T2.exhibition_id": 5892,
      "▁\"2": 5893,
      "▁\"4": 5894,
      "▁\"mp": 5895,
      "▁\"20": 5896,
      "▁\"rio": 5897,
      "▁mp": 5898,
      "▁mult": 5899,
      "▁morning": 5900,
      "roph": 5901,
      "settlement": 5902,
      "ape": 5903,
      "▁stage": 5904,
      "▁dong": 5905,
      "▁floor": 5906,
      "▁flno": 5907,
      "▁t1.border": 5908,
      "▁banking": 5909,
      "▁back": 5910,
      "▁Draft": 5911,
      "▁David": 5912,
      "▁t2.ship_id": 5913,
      "▁sch": 5914,
      "▁sim": 5915,
      "▁software": 5916,
      "uman": 5917,
      "▁Le": 5918,
      "laware": 5919,
      "▁CName": 5920,
      "▁Carole": 5921,
      "▁Cafe": 5922,
      "▁Corpor": 5923,
      "▁ever": 5924,
      "_capacity)": 5925,
      "▁t3.headquart": 5926,
      "▁1?\n": 5927,
      "▁nomination": 5928,
      "00\"\n": 5929,
      "artford": 5930,
      "irmative": 5931,
      "▁(in": 5932,
      "illed": 5933,
      "▁HS": 5934,
      "ess_count)": 5935,
      "▁2;\n": 5936,
      "▁reach": 5937,
      "▁recog": 5938,
      "ennsylvania": 5939,
      "▁People": 5940,
      "urance": 5941,
      "▁have\n": 5942,
      "▁state.\n": 5943,
      "▁T3.staff_id": 5944,
      "▁T3.StuID": 5945,
      "▁T3.fore": 5946,
      "▁T3.Tourist_Attraction_ID": 5947,
      "ffect": 5948,
      "▁Rock": 5949,
      "▁Relational": 5950,
      "▁Range": 5951,
      "▁measure": 5952,
      "▁student.\n": 5953,
      "▁student_id\n": 5954,
      "ichelle": 5955,
      "irstName": 5956,
      "▁g\n": 5957,
      "age_id": 5958,
      "▁city_area": 5959,
      "partment_assign": 5960,
      "▁coast": 5961,
      "amily": 5962,
      "▁IN(": 5963,
      "▁rID": 5964,
      "_pct": 5965,
      "▁first_not": 5966,
      "asePrice)": 5967,
      "▁Enrollment": 5968,
      "▁department\n": 5969,
      "▁department_id\n": 5970,
      "ublic": 5971,
      "ONVERS": 5972,
      "▁2001": 5973,
      "▁2003": 5974,
      "▁2005\n": 5975,
      "lub_ID": 5976,
      "▁2011\n": 5977,
      "eopard": 5978,
      "▁document_type_name": 5979,
      "▁document_section": 5980,
      "▁lens": 5981,
      "▁3;\n": 5982,
      "▁scholarship": 5983,
      "escape": 5984,
      "▁T1.name_first": 5985,
      "▁T1.name_last": 5986,
      "emantic": 5987,
      "▁date_b": 5988,
      "product_details": 5989,
      "_department_assign": 5990,
      "▁total.\n": 5991,
      "all_rating": 5992,
      "ard\"\n": 5993,
      "▁jord": 5994,
      "▁Ve": 5995,
      "_Transaction": 5996,
      "_in\n": 5997,
      "▁course_id\n": 5998,
      "▁Years": 5999,
      "ategory_id": 6000,
      "oints\n": 6001,
      "quired": 6002,
      "▁only": 6003,
      "▁count(T1.": 6004,
      "▁Customer_ID\n": 6005,
      "nsor": 6006,
      "▁100.\n": 6007,
      "▁10000\n": 6008,
      "▁t5.mid": 6009,
      "_Delivery": 6010,
      "▁distinct(": 6011,
      "▁sum(c": 6012,
      "▁sum(games": 6013,
      "▁T2.name\n": 6014,
      "▁\"Carole": 6015,
      "▁T2.playlist_id": 6016,
      "▁staff_department_assign": 6017,
      "▁T1.patient": 6018,
      "antino": 6019,
      "_mobile": 6020,
      "▁clublocation": 6021,
      "_series": 6022,
      "▁price?\n": 6023,
      "▁amount.\n": 6024,
      "▁\"Michelle": 6025,
      "▁T1.Committee": 6026,
      "▁tracks?\n": 6027,
      "▁\"Banking": 6028,
      "ghar": 6029,
      "▁\"Dem": 6030,
      "▁actor\n": 6031,
      "mployeeID": 6032,
      "▁min(T2.": 6033,
      "▁T2.Position": 6034,
      "▁T2.People_ID\n": 6035,
      "▁station\n": 6036,
      "▁teaching": 6037,
      "▁twice": 6038,
      "▁T1.s_id": 6039,
      "▁T2.Author": 6040,
      "▁T2.Airport_ID": 6041,
      "▁county\n": 6042,
      "amount_of_transaction": 6043,
      "▁role_code\n": 6044,
      "▁committee": 6045,
      "▁dept_name\n": 6046,
      "▁T3.class_code": 6047,
      "▁points?\n": 6048,
      "▁\"back": 6049,
      "▁actual": 6050,
      "▁\"New": 6051,
      "▁\"Nok": 6052,
      "olicy_type_code": 6053,
      "aths": 6054,
      "▁T1.Service_Type_Description": 6055,
      "chool_name": 6056,
      "▁races?\n": 6057,
      "irella": 6058,
      "▁\"Relational": 6059,
      "▁marketing": 6060,
      "▁\"F\"": 6061,
      "▁\"Football": 6062,
      "▁codes.\n": 6063,
      "▁companies?\n": 6064,
      "▁classrooms": 6065,
      "▁\"Jer": 6066,
      "▁T2.state": 6067,
      "▁T2.storm_id": 6068,
      "_grade": 6069,
      "▁booked": 6070,
      "hone_ID": 6071,
      "▁enrollment?\n": 6072,
      "▁appelation": 6073,
      "▁lessons": 6074,
      "▁albums?\n": 6075,
      "access_count)": 6076,
      "▁70": 6077,
      "▁dept_name)": 6078,
      "ailability": 6079,
      "▁Orders": 6080,
      "▁T1.Mountain_ID": 6081,
      "▁\"film": 6082,
      "▁1500": 6083,
      "▁60": 6084,
      "▁T1.Fname": 6085,
      "▁\"%M": 6086,
      "▁entrepreneur\n": 6087,
      "▁\"cum": 6088,
      "▁\"Good": 6089,
      "▁offers": 6090,
      "▁offices": 6091,
      "▁origins": 6092,
      "peed)": 6093,
      "▁Michelle": 6094,
      "▁Angeles\"\n": 6095,
      "▁record?\n": 6096,
      "▁payment_method_code\n": 6097,
      "_NAME\n": 6098,
      "▁T3.driverid": 6099,
      "▁T3.dorm_name": 6100,
      "_publication": 6101,
      "▁destroy": 6102,
      "▁Date_of": 6103,
      "▁t2.swimmer": 6104,
      "played)": 6105,
      "▁t1.people_id": 6106,
      "journalist": 6107,
      "▁Order_Item": 6108,
      "▁votes.\n": 6109,
      "▁T2.actor_id": 6110,
      "▁States'": 6111,
      "▁t6.pid": 6112,
      "▁Location_Name": 6113,
      "▁T1.Total": 6114,
      "▁supplier_id": 6115,
      "▁longer": 6116,
      "▁'TV": 6117,
      "▁donator": 6118,
      "▁T1.grant_id": 6119,
      "▁T1.gameid": 6120,
      "▁CV\"\n": 6121,
      "▁T3.Party": 6122,
      "▁T2.Fname": 6123,
      "▁T2.FacID": 6124,
      "▁amenity": 6125,
      "▁t2.people_id": 6126,
      "▁t2.program_id": 6127,
      "▁Advisor\n": 6128,
      "▁T1.EmployeeID": 6129,
      "enzyme_id": 6130,
      "orkshop_Group_ID": 6131,
      "▁T2.staff_first_name": 6132,
      "▁T2.staff_last_name": 6133,
      "▁\"restaurant\"": 6134,
      "▁Member_ID\n": 6135,
      "▁i.": 6136,
      "▁Engine": 6137,
      "▁family_name": 6138,
      "ecame_customer": 6139,
      "no_of_customer": 6140,
      "▁debates": 6141,
      "▁Rank\n": 6142,
      "eatures": 6143,
      "_value)": 6144,
      "▁Amount_Settled": 6145,
      "▁T2.department_name": 6146,
      "▁claims_pro": 6147,
      "organization": 6148,
      "▁domain_author": 6149,
      "hington": 6150,
      "▁\"NIPS\"": 6151,
      "▁built_year": 6152,
      "▁\"ACL\"": 6153,
      "visional": 6154,
      "▁T1.LName": 6155,
      "▁T3.storm_id": 6156,
      "_Passengers)": 6157,
      "▁\"california\"": 6158,
      "▁T2.Product_ID": 6159,
      "▁Title\n": 6160,
      "▁T1.Instructor": 6161,
      "ification_of_lo": 6162,
      "▁Wen\"\n": 6163,
      "▁t1.document_code": 6164,
      "▁GRADEC": 6165,
      "▁GRAPES": 6166,
      "_structure_code": 6167,
      "▁Participants": 6168,
      "▁'Alice'": 6169,
      "_yn\n": 6170,
      "evice_ID": 6171,
      "gradepoint": 6172,
      "▁PRODUCT": 6173,
      "▁laptimes": 6174,
      "individual_id": 6175,
      "▁T3.Airport_ID": 6176,
      "▁prescribes": 6177,
      "▁\"null\"": 6178,
      "▁INVOICES": 6179,
      "▁\"english\"\n": 6180,
      "▁Documents_to_be_destroyed\n": 6181,
      "▁meter_": 6182,
      "▁Starting": 6183,
      "_system_code": 6184,
      "student_capacity)": 6185,
      "▁primary": 6186,
      "▁T1.actID": 6187,
      "market_value)": 6188,
      "▁Tarantino": 6189,
      "▁Exp": 6190,
      "▁star_rating_code": 6191,
      "_locations\n": 6192,
      "▁T2.roomName": 6193,
      "_CODE\n": 6194,
      "unctional_area": 6195,
      "_line_1": 6196,
      "▁TIME": 6197,
      "▁Cascade": 6198,
      "▁Guests": 6199,
      "ediaTypeId": 6200,
      "Quentin": 6201,
      "warded": 6202,
      "▁Farhadi": 6203,
      "▁carlo": 6204,
      "▁T2.party_name": 6205,
      "▁LEVEL": 6206,
      "▁Cameron": 6207,
      "ocratic": 6208,
      "▁\"Columbus": 6209,
      "▁\"Linda\"": 6210,
      "▁claim_headers": 6211,
      "▁'Spring'": 6212,
      "▁T2.Host_city_ID": 6213,
      "raphics_mode": 6214,
      "Order_Quantity)": 6215,
      "_Incident": 6216,
      "▁keyphrases": 6217,
      "▁t7.pid": 6218,
      "▁Staff_Department_Assignments": 6219,
      "▁accelerator_compatible_browser": 6220,
      "MNLP": 6221,
      "Milliseconds)": 6222,
      "distance)": 6223,
      "▁artworks": 6224,
      "▁cuisine": 6225,
      "▁T2.Store": 6226,
      "rophic": 6227,
      "settlement_amount)": 6228,
      "▁simulation": 6229,
      "▁Corporation": 6230,
      "▁t3.headquartered": 6231,
      "▁recognition": 6232,
      "▁T3.forename": 6233,
      "▁first_notification_of_lo": 6234,
      "ONVERSION": 6235,
      "eopardy!": 6236,
      "▁date_became_customer": 6237,
      "▁sum(gamesplayed)": 6238,
      "▁staff_department_assignments": 6239,
      "▁\"Michelle\";\n": 6240,
      "▁\"Nokia": 6241,
      "▁t2.swimmer_id": 6242,
      "no_of_customers)": 6243,
      "▁GRADECONVERSION": 6244,
      "gradepoint)": 6245,
      "▁PRODUCTS": 6246,
      "▁first_notification_of_loss": 6247,
      "-author": 6248,
      ".document": 6249,
      "4\n": 6250,
      "Date": 6251,
      "IR": 6252,
      "KING": 6253,
      "OO": 6254,
      "Occup": 6255,
      "_k": 6256,
      "_or": 6257,
      "_mp": 6258,
      "_gender": 6259,
      "_langu": 6260,
      "_2\n": 6261,
      "_join": 6262,
      "ave": 6263,
      "aunch": 6264,
      "creen": 6265,
      "dditional": 6266,
      "eap": 6267,
      "eve": 6268,
      "efend": 6269,
      "ict": 6270,
      "ied": 6271,
      "iad": 6272,
      "m\"": 6273,
      "ma": 6274,
      "proved": 6275,
      "uying": 6276,
      "w_point": 6277,
      "week": 6278,
      "weight)": 6279,
      "▁ur": 6280,
      "▁1.\n": 6281,
      "▁venues": 6282,
      "▁town": 6283,
      "▁Task": 6284,
      "▁TAIL": 6285,
      "▁Tonnage": 6286,
      "stic": 6287,
      "idaho": 6288,
      "▁apid": 6289,
      "▁Ame": 6290,
      "▁And": 6291,
      "▁Service": 6292,
      "inent": 6293,
      "inhibitor": 6294,
      "▁F)": 6295,
      "▁Film": 6296,
      "▁Founded": 6297,
      "▁cat": 6298,
      "▁certific": 6299,
      "▁Weight": 6300,
      "▁WebKB": 6301,
      "onference": 6302,
      "itial": 6303,
      "▁Jura": 6304,
      "▁T2.te": 6305,
      "▁T2.outcome_code": 6306,
      "▁\"l": 6307,
      "▁\"idaho": 6308,
      "▁Bangla": 6309,
      "lex": 6310,
      "▁fall": 6311,
      "▁filed": 6312,
      "▁t1.pid": 6313,
      "▁t1.text": 6314,
      "▁Days_held": 6315,
      "ing\"": 6316,
      "▁t2.high": 6317,
      "▁swim": 6318,
      "▁hall": 6319,
      "▁Lab": 6320,
      "▁Code": 6321,
      "▁Canad": 6322,
      "▁CMI": 6323,
      "omestic": 6324,
      "▁employ": 6325,
      "▁Governor": 6326,
      "thing": 6327,
      "_cred": 6328,
      "_cover": 6329,
      "▁nur": 6330,
      "▁has.\n": 6331,
      "ilver": 6332,
      "usic": 6333,
      "oper": 6334,
      "▁rent": 6335,
      "▁PH": 6336,
      "▁Ph": 6337,
      "▁People_ID": 6338,
      "▁dec": 6339,
      "▁deli": 6340,
      "▁'inhibitor": 6341,
      "urger": 6342,
      "▁have.\n": 6343,
      "▁customer_email": 6344,
      "ot_cred": 6345,
      "uel": 6346,
      "▁RAM": 6347,
      "_time": 6348,
      "_tax": 6349,
      "▁product_type_code\n": 6350,
      "▁student\n": 6351,
      "▁go": 6352,
      "▁grape": 6353,
      "▁cover": 6354,
      "▁co-author": 6355,
      "▁Stone": 6356,
      "▁T2.customer_name": 6357,
      "▁T2.course_name": 6358,
      "▁oren": 6359,
      "▁Eliminated": 6360,
      "▁200;\n": 6361,
      "_native": 6362,
      "▁max_temperature_f": 6363,
      "▁lead": 6364,
      "ults": 6365,
      "▁300\n": 6366,
      "▁date_in": 6367,
      "▁date_problem_reported": 6368,
      "_fault": 6369,
      "_feet": 6370,
      "_dew_point": 6371,
      "▁member\n": 6372,
      "▁cheap": 6373,
      "ages\n": 6374,
      "▁5.\n": 6375,
      "_buying": 6376,
      "▁alamed": 6377,
      "_Attendance": 6378,
      "_Audience": 6379,
      "_Additional": 6380,
      "▁people?\n": 6381,
      "ergrade": 6382,
      "▁Student_Address": 6383,
      "▁Customer_Event": 6384,
      "▁aged": 6385,
      "▁100000\n": 6386,
      "▁t5.kid": 6387,
      "▁school_id": 6388,
      "▁max(t": 6389,
      "ayments": 6390,
      "_Place": 6391,
      "▁Reign": 6392,
      "_move": 6393,
      "▁cities.\n": 6394,
      "_sh": 6395,
      "▁class.\n": 6396,
      "ferred": 6397,
      "struction": 6398,
      "udy": 6399,
      "▁track\n": 6400,
      "s_US": 6401,
      "▁Document_Types": 6402,
      "arent": 6403,
      "▁T1.building": 6404,
      "fo.": 6405,
      "ufacte": 6406,
      "▁it.\n": 6407,
      "▁\"TAIL": 6408,
      "▁\"Herb": 6409,
      "▁except": 6410,
      "▁T4.name": 6411,
      "osition\n": 6412,
      "▁county.\n": 6413,
      "▁Product_S": 6414,
      "▁job_title": 6415,
      "▁T2.building_id": 6416,
      "▁transactions?\n": 6417,
      "▁acted": 6418,
      "▁Info.": 6419,
      "▁ranks": 6420,
      "▁checkin": 6421,
      "▁taking": 6422,
      "ailed": 6423,
      "odes\n": 6424,
      "▁codes,": 6425,
      "ignedT": 6426,
      "▁enrollments": 6427,
      "▁90": 6428,
      "▁90\n": 6429,
      "ext": 6430,
      "▁events?\n": 6431,
      "▁T1.Festival_ID": 6432,
      "▁'Pro": 6433,
      "▁T2.Hardware_Model_name": 6434,
      "_approved": 6435,
      "▁bedroom": 6436,
      "▁managers": 6437,
      "_humidity": 6438,
      "▁origin\n": 6439,
      "▁Party_Theme": 6440,
      "lask": 6441,
      "▁Michael": 6442,
      "▁T2.Market_ID": 6443,
      "_Number": 6444,
      "_of_host": 6445,
      "_working": 6446,
      "▁'F'\n": 6447,
      "▁genre_is": 6448,
      "▁nationality\n": 6449,
      "▁\"WebKB": 6450,
      "_completion": 6451,
      "▁held?\n": 6452,
      "▁Participates_in": 6453,
      "_log_entry_id": 6454,
      "▁postal": 6455,
      "▁assets": 6456,
      "▁active_from": 6457,
      "_province_county\n": 6458,
      "hite\"": 6459,
      "urniture_ID": 6460,
      "_Year\n": 6461,
      "▁Height\n": 6462,
      "▁'London": 6463,
      "▁avg(total": 6464,
      "_rank\n": 6465,
      "▁112": 6466,
      "▁railways": 6467,
      "▁serve": 6468,
      "▁series": 6469,
      "▁served": 6470,
      "▁Pop\"?\n": 6471,
      "_billion\n": 6472,
      "▁'King": 6473,
      "▁operated": 6474,
      "reasur": 6475,
      "▁\"alamed": 6476,
      "▁\"197": 6477,
      "mi_cross_ref_id\n": 6478,
      "▁furniture_man": 6479,
      "▁invested": 6480,
      "▁allergies?\n": 6481,
      "s_Re": 6482,
      "▁Office": 6483,
      "▁participants": 6484,
      "_award": 6485,
      "son'\n": 6486,
      "▁3.5": 6487,
      "▁tests": 6488,
      "▁test_result": 6489,
      "resident_Vote": 6490,
      "▁Sawayn?\n": 6491,
      "▁Publisher": 6492,
      "_yn": 6493,
      "▁AssignedT": 6494,
      "▁PROF": 6495,
      "▁management": 6496,
      "▁kinds": 6497,
      "theme": 6498,
      "_millions_US": 6499,
      "manufacturer": 6500,
      "manufacturer_id": 6501,
      "▁trust": 6502,
      "▁cycle.\n": 6503,
      "▁T1.teacher_id": 6504,
      "▁\"Spices": 6505,
      "▁launched": 6506,
      "▁include": 6507,
      ".ResID": 6508,
      "engineer_id": 6509,
      "▁March": 6510,
      "▁Research_Staff": 6511,
      "▁wyoming\n": 6512,
      "amage_millions_US": 6513,
      "▁Catalog_Contents_Additional": 6514,
      "▁platforms": 6515,
      "▁\"NYC": 6516,
      "ouncil_tax": 6517,
      "_assigned_to": 6518,
      "▁advise": 6519,
      "▁operate_company": 6520,
      "▁cloud_cover": 6521,
      "▁protein": 6522,
      "▁password": 6523,
      "▁prominence": 6524,
      "▁\"colorado\"": 6525,
      "lorid": 6526,
      "▁\"oren": 6527,
      "▁Division": 6528,
      "edule": 6529,
      "articipant_ID": 6530,
      "▁qualification": 6531,
      "▁\"CVPR\"": 6532,
      "architect_id": 6533,
      "▁schedule": 6534,
      "▁Vehic": 6535,
      "creen_mode": 6536,
      "▁t2.highest": 6537,
      "▁Eliminated_B": 6538,
      "_native_langu": 6539,
      "_dew_point_f": 6540,
      "▁cheapest": 6541,
      "_buying_price": 6542,
      "▁alameda": 6543,
      "_moved": 6544,
      "▁\"TAIL\"": 6545,
      "▁Product_Suppliers": 6546,
      "▁\"WebKB\";\n": 6547,
      "▁furniture_manufacte": 6548,
      "(salary)": 6549,
      "-3": 6550,
      "-X": 6551,
      ".org": 6552,
      "0-3": 6553,
      "2-2": 6554,
      "484": 6555,
      "596": 6556,
      "74": 6557,
      "7:": 6558,
      "8/": 6559,
      "8-06": 6560,
      "AZ": 6561,
      "A'\n": 6562,
      "ALE": 6563,
      "BER": 6564,
      "CE": 6565,
      "CLA": 6566,
      "FA": 6567,
      "IEN": 6568,
      "IFA": 6569,
      "Journal": 6570,
      "KG": 6571,
      "M-26": 6572,
      "NAME": 6573,
      "ONT": 6574,
      "Play": 6575,
      "QM-26": 6576,
      "SN": 6577,
      "Time": 6578,
      "_IT": 6579,
      "_room": 6580,
      "_and": 6581,
      "_att": 6582,
      "_job": 6583,
      "ake": 6584,
      "ace": 6585,
      "azz": 6586,
      "bo": 6587,
      "cra": 6588,
      "cost": 6589,
      "even": 6590,
      "eag": 6591,
      "ending": 6592,
      "event": 6593,
      "eak": 6594,
      "elegate": 6595,
      "first": 6596,
      "faculty": 6597,
      "fastest": 6598,
      "fsk": 6599,
      "grant": 6600,
      "hor": 6601,
      "hit": 6602,
      "h\"\n": 6603,
      "has": 6604,
      "height)": 6605,
      "huri": 6606,
      "ij": 6607,
      "iat": 6608,
      "i_id\n": 6609,
      "iram": 6610,
      "iulian": 6611,
      "jam": 6612,
      "jors": 6613,
      "l\n": 6614,
      "lin": 6615,
      "lap": 6616,
      "latest": 6617,
      "many": 6618,
      "mark": 6619,
      "mond": 6620,
      "mass": 6621,
      "num": 6622,
      "nick": 6623,
      "nesse": 6624,
      "ov": 6625,
      "odern": 6626,
      "price)": 6627,
      "q_id": 6628,
      "question": 6629,
      "rate": 6630,
      "rns": 6631,
      "sy": 6632,
      "side": 6633,
      "swering": 6634,
      "scholarship": 6635,
      "speed)": 6636,
      "tah": 6637,
      "titude": 6638,
      "uch": 6639,
      "vil": 6640,
      "wick": 6641,
      "yao": 6642,
      "▁$": 6643,
      "▁‘": 6644,
      "▁rio": 6645,
      "▁tv": 6646,
      "▁Third": 6647,
      "stin": 6648,
      "er\".\n": 6649,
      "ercent": 6650,
      "erved": 6651,
      "ermany": 6652,
      "atwick": 6653,
      "▁thing": 6654,
      "idoo": 6655,
      "▁aid\n": 6656,
      "▁Art": 6657,
      "▁Att": 6658,
      "▁Artist_ID": 6659,
      "▁American": 6660,
      "▁A34": 6661,
      "ROF": 6662,
      "▁Skill": 6663,
      "▁Scores": 6664,
      "▁SSN": 6665,
      "ini": 6666,
      "ini\";\n": 6667,
      "▁FIFA": 6668,
      "ameID": 6669,
      "orocc": 6670,
      "▁cult": 6671,
      "▁cust_id": 6672,
      "▁cmi": 6673,
      "▁copies": 6674,
      "▁World": 6675,
      "onor": 6676,
      "onac": 6677,
      "▁Oper": 6678,
      "▁paperid": 6679,
      "▁parent": 6680,
      "▁peak": 6681,
      "reation": 6682,
      "report": 6683,
      "▁T1.dept": 6684,
      "▁T1.emp": 6685,
      "▁T1.department": 6686,
      "▁T1.allergy": 6687,
      "▁T1.member": 6688,
      "▁T1.Location": 6689,
      "▁T1.asset": 6690,
      "▁T1.manufacturer": 6691,
      "▁works": 6692,
      "▁walk": 6693,
      "▁T2.J": 6694,
      "▁T2.al": 6695,
      "▁T2.ch": 6696,
      "▁T2.en": 6697,
      "▁T2.organisation_type": 6698,
      "▁T2.resolution": 6699,
      "▁T2.region_name": 6700,
      "▁T2.enzyme_id": 6701,
      "▁\"a": 6702,
      "▁\"red": 6703,
      "▁\"ten": 6704,
      "▁\"200": 6705,
      "▁\"600": 6706,
      "▁milk": 6707,
      "▁much": 6708,
      "rode": 6709,
      "ropri": 6710,
      "▁Bond": 6711,
      "▁Budget": 6712,
      "▁Biology": 6713,
      "▁Bernhard": 6714,
      "▁BOO": 6715,
      "seating": 6716,
      "apit": 6717,
      "lead": 6718,
      "nders": 6719,
      "als": 6720,
      "atent": 6721,
      "▁fin": 6722,
      "▁five": 6723,
      "▁fly": 6724,
      "3.\n": 6725,
      "▁t1.age": 6726,
      "▁t1.ship_id": 6727,
      "▁DName": 6728,
      "▁Doming": 6729,
      "▁Daller": 6730,
      "▁t2.role": 6731,
      "▁t2.staff_id": 6732,
      "▁t2.product_category_code": 6733,
      "▁same": 6734,
      "▁spring": 6735,
      "▁her": 6736,
      "▁hand": 6737,
      "▁hired": 6738,
      "▁LA": 6739,
      "▁Lap": 6740,
      "▁Langu": 6741,
      "▁LName\n": 6742,
      "laho": 6743,
      "lage": 6744,
      "▁Campus": 6745,
      "▁Cup": 6746,
      "▁CRS": 6747,
      "▁Canoeing": 6748,
      "omenick": 6749,
      "gen": 6750,
      "▁ending": 6751,
      "▁Gri": 6752,
      "▁Galler": 6753,
      "▁Gatwick": 6754,
      "_customer_id": 6755,
      "_conference": 6756,
      "▁t3.p": 6757,
      "▁t3.kid": 6758,
      "IDENT": 6759,
      "▁national": 6760,
      "▁nomine": 6761,
      "chiat": 6762,
      "vered": 6763,
      "▁(first": 6764,
      "iles\n": 6765,
      "iliation": 6766,
      "illage": 6767,
      "▁ORDER_IT": 6768,
      "yellow": 6769,
      "▁Hill": 6770,
      "▁Hosse": 6771,
      "▁registration": 6772,
      "enjam": 6773,
      "▁Pilot": 6774,
      "▁Pennsylvania": 6775,
      "▁Position\n": 6776,
      "▁depart": 6777,
      "▁degree": 6778,
      "▁dependent": 6779,
      "▁destruction": 6780,
      "urred": 6781,
      "ures\n": 6782,
      "_code)": 6783,
      "▁state_province_county\n": 6784,
      "igir": 6785,
      "▁customer_first_name": 6786,
      "ubway": 6787,
      "▁T3.stu": 6788,
      "▁T3.location": 6789,
      "▁T3.raceid": 6790,
      "▁T3.stu_num": 6791,
      "▁T3.location_id": 6792,
      "fficial": 6793,
      "authorder": 6794,
      "▁Ry": 6795,
      "▁Richard": 6796,
      "▁modern": 6797,
      "▁M)": 6798,
      "▁Medication": 6799,
      "▁MONT": 6800,
      "▁t4.business_id": 6801,
      "▁li": 6802,
      "ereq_id": 6803,
      "▁product_s": 6804,
      "▁product_details": 6805,
      "▁given": 6806,
      "ashington": 6807,
      "▁idaho": 6808,
      "ptate": 6809,
      "▁maint": 6810,
      "▁majors": 6811,
      "▁orders?\n": 6812,
      "▁order_status_code": 6813,
      "▁T1.code": 6814,
      "▁T1.cmi_cross_ref_id": 6815,
      "▁Statistics": 6816,
      "▁Strode": 6817,
      "layed)": 6818,
      "▁author\n": 6819,
      "oog": 6820,
      "ssn": 6821,
      "ssue": 6822,
      "ssn\n": 6823,
      "acros": 6824,
      "_people": 6825,
      "_played)": 6826,
      "ormats": 6827,
      "▁T2.crs_code": 6828,
      "▁Erns": 6829,
      "▁write": 6830,
      "▁availability": 6831,
      "▁department_st": 6832,
      "▁lasted": 6833,
      "portName": 6834,
      "▁avg(enr)": 6835,
      "▁avg(mean": 6836,
      "opulation)": 6837,
      "▁2013": 6838,
      "▁NY": 6839,
      "▁Nancy": 6840,
      "▁NEB": 6841,
      "▁North": 6842,
      "hipped": 6843,
      "▁3000": 6844,
      "▁37.": 6845,
      "▁date_address": 6846,
      "▁date_order_placed": 6847,
      "_foot": 6848,
      "entuck": 6849,
      "entral": 6850,
      "iang": 6851,
      "ianne": 6852,
      "▁yearid": 6853,
      "▁year_opened": 6854,
      "all\"\n": 6855,
      "▁answering": 6856,
      "▁chaud": 6857,
      "▁airline": 6858,
      "_Cross": 6859,
      "▁500\n": 6860,
      "osco": 6861,
      "▁minute": 6862,
      "rominence": 6863,
      "_bus": 6864,
      "_inch": 6865,
      "_in_ch": 6866,
      "▁course.\n": 6867,
      "ervil": 6868,
      "▁You": 6869,
      "strid": 6870,
      "▁alto": 6871,
      "▁people.\n": 6872,
      "ure_company": 6873,
      "▁genders": 6874,
      "▁onscholarship": 6875,
      "▁title?\n": 6876,
      "illman": 6877,
      "ttergrade": 6878,
      "▁agent": 6879,
      "▁100000": 6880,
      "▁1000.\n": 6881,
      "end_station_id": 6882,
      "▁sum(amount)": 6883,
      "▁\"Close": 6884,
      "▁\"Computer": 6885,
      "▁T1.student": 6886,
      "▁T2.player": 6887,
      "▁school_bus": 6888,
      "▁max(S": 6889,
      "▁max(salary)": 6890,
      "ampusfee": 6891,
      "▁T1.pr": 6892,
      "▁T1.pName": 6893,
      "▁T1.problem_id": 6894,
      "roll_grade": 6895,
      "▁salary\n": 6896,
      "▁salary?\n": 6897,
      "▁salary.\n": 6898,
      "▁party_id": 6899,
      "▁party_name": 6900,
      "_Part": 6901,
      "_Percent": 6902,
      "▁\"SALE": 6903,
      "▁\"Shipped": 6904,
      "hop_Name": 6905,
      "▁YEAR\n": 6906,
      "ourist_att": 6907,
      "▁club\n": 6908,
      "▁film_id": 6909,
      "▁films.\n": 6910,
      "▁employee.\n": 6911,
      "▁\"Paper": 6912,
      "_salary": 6913,
      "_shop": 6914,
      "▁project_id\n": 6915,
      "▁projects?\n": 6916,
      "▁project_details": 6917,
      "▁T1.formats": 6918,
      "▁T2.f1": 6919,
      "▁amount?\n": 6920,
      "▁\"M\"": 6921,
      "▁\"Milk": 6922,
      "structors": 6923,
      "▁player_award": 6924,
      "▁\"AISTATS": 6925,
      "▁\"Awarded": 6926,
      "▁T1.Company": 6927,
      "▁T1.CustomerId": 6928,
      "▁tracking": 6929,
      "▁193": 6930,
      "▁196": 6931,
      "▁197": 6932,
      "▁movie?\n": 6933,
      "▁ship_id": 6934,
      "▁cons": 6935,
      "▁constructors": 6936,
      "▁\"BAL": 6937,
      "▁\"Bernhard": 6938,
      "▁\"Balls": 6939,
      "s_report": 6940,
      "▁\"Der": 6941,
      "▁\"Defend": 6942,
      "▁Documents\n": 6943,
      "form_id": 6944,
      "raction_id": 6945,
      "ooked": 6946,
      "ook_club": 6947,
      "▁phone_market": 6948,
      "niversal": 6949,
      "▁payments": 6950,
      "▁T1.Album": 6951,
      "ngine": 6952,
      "▁did\n": 6953,
      "▁didn't": 6954,
      "▁rating\n": 6955,
      "▁rating?\n": 6956,
      "▁rating.\n": 6957,
      "▁station.\n": 6958,
      "▁it?\n": 6959,
      "▁\"Tony": 6960,
      "▁\"Tillman": 6961,
      "▁description.\n": 6962,
      "▁\"How": 6963,
      "▁T4.staff": 6964,
      "▁T4.dept_name": 6965,
      "unyao": 6966,
      "▁T1.school": 6967,
      "ookings\n": 6968,
      "▁T2.Age": 6969,
      "▁T2.ArtistId": 6970,
      "alem": 6971,
      "▁county_ID": 6972,
      "▁Product_ID\n": 6973,
      "▁Product_Type_Code": 6974,
      "▁types?\n": 6975,
      "rade_name": 6976,
      "ysics": 6977,
      "▁campusfee": 6978,
      "▁committe": 6979,
      "▁T2.block": 6980,
      "▁T3.course_id": 6981,
      "_Est": 6982,
      "_Engine": 6983,
      "▁t3.cid": 6984,
      "▁point\n": 6985,
      "▁\"bus": 6986,
      "_address\n": 6987,
      "▁T2.song": 6988,
      "▁T2.school_name": 6989,
      "▁T1.Player": 6990,
      "▁\"Nanc": 6991,
      "▁\"NEB": 6992,
      "▁\"North": 6993,
      "▁open_date": 6994,
      "▁open_year\n": 6995,
      "▁'Ar": 6996,
      "▁'Account": 6997,
      "▁'Austin": 6998,
      "lerical": 6999,
      "▁gender?\n": 7000,
      "▁Instrument": 7001,
      "▁next": 7002,
      "_to_date": 7003,
      "▁rank.\n": 7004,
      "▁ascending?\n": 7005,
      "athrow": 7006,
      "prof": 7007,
      "▁T1.Submission_ID": 7008,
      "▁tax": 7009,
      "▁take": 7010,
      "▁starts": 7011,
      "▁details,": 7012,
      "▁Ref_locations": 7013,
      "▁Ref_budget": 7014,
      "hicag": 7015,
      "▁budgets": 7016,
      "▁races.\n": 7017,
      "odrick": 7018,
      "-08": 7019,
      "▁card_number": 7020,
      "▁\"Ryl": 7021,
      "▁\"Richard": 7022,
      "▁Kn": 7023,
      "▁Kayaking": 7024,
      "▁Kapit": 7025,
      "▁catalogs": 7026,
      "▁T2.CustomerId": 7027,
      "▁\"Fast": 7028,
      "▁\"Female": 7029,
      "PEG": 7030,
      "▁\"James": 7031,
      "▁84": 7032,
      "▁8000": 7033,
      "▁'Canoeing": 7034,
      "_Sen": 7035,
      "▁position.\n": 7036,
      "▁titles,": 7037,
      "ovie_id": 7038,
      "▁enrollment.\n": 7039,
      "▁appro": 7040,
      "▁aircraft\n": 7041,
      "login": 7042,
      "er_Visit": 7043,
      "▁pilot_record": 7044,
      "▁produce": 7045,
      "-220": 7046,
      "▁93": 7047,
      "oluptate": 7048,
      "▁TYPE\n": 7049,
      "▁Resident": 7050,
      "▁150\n": 7051,
      "ewis": 7052,
      "WEAZ": 7053,
      "_MAN": 7054,
      "ahab": 7055,
      "▁18\n": 7056,
      "▁188": 7057,
      "▁policy\"": 7058,
      "▁customer_id)": 7059,
      "▁organization_name": 7060,
      "▁organization_contact": 7061,
      "▁Address\n": 7062,
      "▁Address_ID\n": 7063,
      "▁'M'": 7064,
      "▁'M'\n": 7065,
      "▁T1.FirstName": 7066,
      "▁Check": 7067,
      "▁'SF": 7068,
      "▁competition_type": 7069,
      "wards\";\n": 7070,
      "▁T2.Host_ID": 7071,
      "_api_id\n": 7072,
      "▁\"Goog": 7073,
      "▁Alidoo": 7074,
      "▁'Banking": 7075,
      "▁'Biology": 7076,
      "▁games?\n": 7077,
      "▁1999": 7078,
      "▁T1.year\n": 7079,
      "▁flights?\n": 7080,
      "▁invoices?\n": 7081,
      "▁raceId\n": 7082,
      "▁Party_ID\n": 7083,
      "▁'%M": 7084,
      "rown": 7085,
      "▁channel_code": 7086,
      "▁T2.transaction_id": 7087,
      "▁lived": 7088,
      "▁located?\n": 7089,
      "▁T1.Grade": 7090,
      "▁bookings.\n": 7091,
      "▁noah": 7092,
      "▁projects)\n": 7093,
      "▁problem_id": 7094,
      "_entry_id\n": 7095,
      "ividuals": 7096,
      "▁avg(T1.age)": 7097,
      "▁T1.stu_lname": 7098,
      "▁T1.DName": 7099,
      "▁T2.Mar": 7100,
      "▁T2.Musical_ID": 7101,
      "▁records": 7102,
      "▁invoice_date": 7103,
      "▁Zach": 7104,
      "▁Allergy_type\n": 7105,
      "▁\"walk": 7106,
      "_of_enrolment": 7107,
      "attendance)": 7108,
      "▁T3.document": 7109,
      "_publisher": 7110,
      "_station_id\n": 7111,
      "▁builder": 7112,
      "_References": 7113,
      "lat)": 7114,
      "▁2014\n": 7115,
      "▁t2.school_id": 7116,
      "▁t2.service_id": 7117,
      "account_details": 7118,
      "core)": 7119,
      "▁\"noah": 7120,
      "▁t1.program_id": 7121,
      "▁T1.task": 7122,
      "▁T1.trade_name": 7123,
      "▁120": 7124,
      "_from\n": 7125,
      "▁'He": 7126,
      "▁T1.date_order_placed": 7127,
      "rowser_id": 7128,
      "▁apt_number": 7129,
      "gistration_id": 7130,
      "_VOT": 7131,
      "lesson": 7132,
      "ristof": 7133,
      "▁T1.customer_address_id": 7134,
      "▁T1.state_province_county": 7135,
      "▁Michigan\"": 7136,
      "presentative": 7137,
      "▁T2.Weeks_on_Top": 7138,
      "▁organisation_id": 7139,
      "▁t6.venueid": 7140,
      "▁t6.venuename": 7141,
      "_Types\n": 7142,
      "▁\"China": 7143,
      "_Horses": 7144,
      "▁IDs": 7145,
      "▁cinemas": 7146,
      "▁suppliers": 7147,
      "▁T1.County_name": 7148,
      "▁Barbian\n": 7149,
      "▁VOTING_RECORD\n": 7150,
      "enreID": 7151,
      "▁T1.register": 7152,
      "▁database?\n": 7153,
      "▁Sportsinfo\n": 7154,
      "rival": 7155,
      "▁T3.Player": 7156,
      "oklaho": 7157,
      "▁creation": 7158,
      "▁took_office": 7159,
      "▁T2.grant_id": 7160,
      "▁t2.policy_id": 7161,
      "▁spec": 7162,
      "aster_customer_id": 7163,
      "▁Club\"\n": 7164,
      "▁rate.\n": 7165,
      "▁sum(t1.": 7166,
      "▁sum(transaction_amount)": 7167,
      "▁island\"": 7168,
      "▁'US": 7169,
      "interaction_type": 7170,
      "▁T1.Country_name": 7171,
      "▁AVG(salary)": 7172,
      "▁Financial_transactions\n": 7173,
      "▁wrestler\n": 7174,
      "▁Major\n": 7175,
      "_individuals": 7176,
      "▁T2.millisecond": 7177,
      "▁T2.document_type_code": 7178,
      "▁T1.Party_ID": 7179,
      "Order_ID": 7180,
      "60596": 7181,
      "▁worked": 7182,
      "▁t1.school_id": 7183,
      "lients": 7184,
      "leted": 7185,
      "▁stu_fname": 7186,
      "▁Destin": 7187,
      "▁Database\"": 7188,
      "▁2007\n": 7189,
      "▁sum(T2.amount)": 7190,
      "ventory_id": 7191,
      "▁Zettlemoyer\n": 7192,
      "▁organisation_Types": 7193,
      "▁'New": 7194,
      "▁2004?\n": 7195,
      "▁Customer_Payments": 7196,
      "9-09-0": 7197,
      "▁T1.staff_gender": 7198,
      "▁T2.order_status_code": 7199,
      "icket_price)": 7200,
      "ircuitid": 7201,
      "▁Prix\"\n": 7202,
      "OYER": 7203,
      "▁earlie": 7204,
      "▁'Kayaking": 7205,
      "▁'Y'\n": 7206,
      "unctional": 7207,
      "▁architects": 7208,
      "▁T1.Store": 7209,
      "▁T1.account_name": 7210,
      "▁\"alask": 7211,
      "▁INVEST": 7212,
      "_for_hire": 7213,
      "▁Robard": 7214,
      "▁avg(price": 7215,
      "▁T4.country": 7216,
      "-12-2": 7217,
      "▁T2.genre_is": 7218,
      "rime_rate": 7219,
      "▁T3.Fname": 7220,
      "▁Settlements\n": 7221,
      "▁owner": 7222,
      "▁\"Vincent": 7223,
      "accelerator_id": 7224,
      "▁avg(basePrice)": 7225,
      "▁login_name": 7226,
      "▁mailshot_customer": 7227,
      "▁emp_job": 7228,
      "▁avg(campusfee": 7229,
      "▁T2.Product_Name": 7230,
      "▁premise": 7231,
      "▁English?\n": 7232,
      "▁T1.Wrestler_ID": 7233,
      "▁Heane": 7234,
      "▁citation_num": 7235,
      "▁chi\n": 7236,
      "▁problem_log_id": 7237,
      "▁Publication": 7238,
      "▁guests": 7239,
      "▁T1.City_ID": 7240,
      "▁\"Badlands\"\n": 7241,
      "▁news_report": 7242,
      "eature_ID": 7243,
      "▁Credits": 7244,
      "▁\"Marianne": 7245,
      "▁commission_pct": 7246,
      "▁\"null\"\n": 7247,
      "▁interaction_type": 7248,
      "▁Documents_to_be_destroyed": 7249,
      "▁truck": 7250,
      "▁T1.part_id": 7251,
      "▁T1.technician_ID": 7252,
      "▁T3.staff_first_name": 7253,
      "▁T3.staff_last_name": 7254,
      "▁Edward": 7255,
      "▁T1.Product_ID": 7256,
      "▁\"Edwards\";\n": 7257,
      "IS-220": 7258,
      "aneh": 7259,
      "▁T2.dept_store_id": 7260,
      "▁Blei": 7261,
      "▁Blei\"": 7262,
      "▁'goalie'\n": 7263,
      "▁sum(hours_played)": 7264,
      "▁T2.prof_office": 7265,
      "▁T1.blockcode": 7266,
      "▁T1.blockfloor": 7267,
      "▁T1.supplier": 7268,
      "▁T1.supplier_id": 7269,
      "▁T2.AlbumId": 7270,
      "▁smith\";\n": 7271,
      "▁'China": 7272,
      "▁'History'": 7273,
      "▁'History'\n": 7274,
      "▁T2.EmployeeId": 7275,
      "▁94107": 7276,
      "▁Ladner\"": 7277,
      "UnitPrice)": 7278,
      "▁t3.service_name": 7279,
      "▁prof_high_degree": 7280,
      "▁regional_population": 7281,
      "▁\"UK\"": 7282,
      "_store_chain_id": 7283,
      "EMS": 7284,
      "▁date_of_latest": 7285,
      "▁\"Provisional": 7286,
      "▁T1.Date_Claim": 7287,
      "▁\"ImageNet\"": 7288,
      "▁Official_Name": 7289,
      "▁Road\"": 7290,
      "▁'1989-0": 7291,
      "braker": 7292,
      "▁Birth_Place": 7293,
      "iscons": 7294,
      "▁bathroom": 7295,
      "▁Crew": 7296,
      "▁Manufacturers": 7297,
      "▁Maintenance_Engine": 7298,
      "ttraction_Type_Code": 7299,
      "▁\"Texas\"": 7300,
      "ruber": 7301,
      "degrees)": 7302,
      "▁T1.Host_ID": 7303,
      "▁Desmond": 7304,
      "▁t2.document_code": 7305,
      "lanta": 7306,
      "▁'Statistics": 7307,
      "▁T3.Department": 7308,
      "▁\"Spring\"\n": 7309,
      "▁\"Solveig\"": 7310,
      "▁\"Professor\"": 7311,
      "▁\"Appropri": 7312,
      "amount_piad": 7313,
      "▁'ACCT-211'\n": 7314,
      "▁colorado\n": 7315,
      "▁T2.job_title_code": 7316,
      "@example.org": 7317,
      "RESIDENT": 7318,
      "initions": 7319,
      "_amount_purchased)": 7320,
      "▁Destroyed_by_Employee_ID": 7321,
      "▁Destruction_Authorised_by_Employee_ID": 7322,
      "▁\"1994": 7323,
      "▁happened": 7324,
      "head_id": 7325,
      "oach_ID": 7326,
      "▁T1.Official": 7327,
      "▁T2.lettergrade": 7328,
      "▁T2.role_name": 7329,
      "▁reached": 7330,
      "▁document_sections": 7331,
      "▁\"Carole\"": 7332,
      "▁\"back\"\n": 7333,
      "▁\"Jeramie": 7334,
      "▁T2.statement": 7335,
      "▁destroyed": 7336,
      "▁Engineer_Visit": 7337,
      "▁claims_processing": 7338,
      "▁Starting_Year": 7339,
      "▁T2.Store_Name": 7340,
      "▁t3.headquartered_city": 7341,
      "Occupancy": 7342,
      "▁Americ": 7343,
      "▁certificates": 7344,
      "▁Jurafsk": 7345,
      "▁swimmers": 7346,
      "▁CMI_Cross": 7347,
      "▁decreasing": 7348,
      "▁delivery": 7349,
      "▁Stonebraker": 7350,
      "_short": 7351,
      "ferred_foot": 7352,
      "▁Office_locations": 7353,
      "▁AssignedTo": 7354,
      "▁Catalog_Contents_Additional_Attributes": 7355,
      "▁Vehicles": 7356,
      "▁Eliminated_By": 7357,
      "48484": 7358,
      "8-06-26": 7359,
      "crastin": 7360,
      "cost)": 7361,
      "fastestlap": 7362,
      "hitne": 7363,
      "hasis": 7364,
      "massl": 7365,
      "nessee\"": 7366,
      "sychiat": 7367,
      "▁A340-3": 7368,
      "▁culture_company": 7369,
      "onaco": 7370,
      "▁T1.member_name": 7371,
      "▁T2.album": 7372,
      "▁T2.enroll_grade": 7373,
      "▁\"tennessee\"": 7374,
      "▁BOOKING": 7375,
      "seating)": 7376,
      "▁Dallermassl": 7377,
      "▁handled": 7378,
      "▁Grill": 7379,
      "▁nationalities": 7380,
      "▁nominees": 7381,
      "▁ORDER_ITEMS": 7382,
      "▁MONTH": 7383,
      "▁product_suppliers": 7384,
      "acrosse": 7385,
      "▁department_stores": 7386,
      "▁chaudhuri": 7387,
      "_in_charge": 7388,
      "ourist_attraction_id": 7389,
      "▁\"Milk\"": 7390,
      "▁\"AISTATS\";\n": 7391,
      "▁\"Defender\"\n": 7392,
      "ook_club_id": 7393,
      "▁T1.AlbumId": 7394,
      "▁\"Nancy\"": 7395,
      "▁\"NEB\"\n": 7396,
      "▁\"Rylan\"": 7397,
      "▁'Canoeing'": 7398,
      "▁organization_contact_individuals": 7399,
      "▁Alidoost": 7400,
      "▁T2.milliseconds": 7401,
      "6059648484": 7402,
      "▁earliest": 7403,
      "▁'Kayaking'\n": 7404,
      "▁emp_jobcode": 7405,
      "▁avg(campusfee)": 7406,
      "▁T3.DepartmentID": 7407,
      "▁\"Appropriations": 7408,
      "RESIDENT_Vote": 7409,
      "▁CMI_Cross_References": 7410,
      "crastin-X": 7411,
      "fastestlapspeed)": 7412,
      "sychiatry": 7413,
      "-11": 7414,
      "0\"": 7415,
      "0\";\n": 7416,
      "Creation": 7417,
      "E_P": 7418,
      "Furniture_ID": 7419,
      "Num_of": 7420,
      "PU": 7421,
      "TE": 7422,
      "Up": 7423,
      "Vote": 7424,
      "Y\n": 7425,
      "_J": 7426,
      "_vis": 7427,
      "_Location": 7428,
      "a%'\n": 7429,
      "a_level": 7430,
      "bl": 7431,
      "ban": 7432,
      "bject": 7433,
      "dres": 7434,
      "dUp": 7435,
      "e\n": 7436,
      "eason": 7437,
      "eared": 7438,
      "hal": 7439,
      "jured": 7440,
      "kansas": 7441,
      "lu": 7442,
      "lication": 7443,
      "lann": 7444,
      "ma\"": 7445,
      "o'\n": 7446,
      "pan": 7447,
      "sue": 7448,
      "sid\n": 7449,
      "share": 7450,
      "uro": 7451,
      "und": 7452,
      "used": 7453,
      "y?\n": 7454,
      "▁ROY": 7455,
      "▁ohad": 7456,
      "erc": 7457,
      "▁Attendance": 7458,
      "▁Australian": 7459,
      "▁Ship": 7460,
      "▁Subject": 7461,
      "inute": 7462,
      "▁Famous_Title": 7463,
      "▁then": 7464,
      "orph": 7465,
      "▁certificate": 7466,
      "▁cmi_cross_ref_id\n": 7467,
      "▁Weeks_on_Top": 7468,
      "▁Occup": 7469,
      "▁Object": 7470,
      "▁po": 7471,
      "▁past": 7472,
      "▁parking": 7473,
      "an\"?\n": 7474,
      "▁Jul": 7475,
      "dex": 7476,
      "arget": 7477,
      "▁T1.B": 7478,
      "▁T1.product": 7479,
      "▁T1.address": 7480,
      "▁T1.zip": 7481,
      "▁T1.Year": 7482,
      "▁T1.u_id": 7483,
      "▁T1.institution": 7484,
      "▁T2.employee": 7485,
      "▁T2.Year": 7486,
      "▁T2.uid": 7487,
      "▁\"Y": 7488,
      "▁\"ohad": 7489,
      "▁\"kansas": 7490,
      "▁mode": 7491,
      "▁mach": 7492,
      "▁msid\n": 7493,
      "▁Block": 7494,
      "▁Builder": 7495,
      "lector": 7496,
      "▁name_first": 7497,
      "▁name_last": 7498,
      "allow": 7499,
      "al_F": 7500,
      "▁studio": 7501,
      "▁during": 7502,
      "▁furnit": 7503,
      "▁facility": 7504,
      "3.order_quantity)": 7505,
      "▁t1.neighbourhood_name": 7506,
      "▁bname": 7507,
      "▁inn": 7508,
      "▁Dan": 7509,
      "▁Det": 7510,
      "▁Divesh": 7511,
      "ing?\n": 7512,
      "ingClass\n": 7513,
      "▁t2.t": 7514,
      "▁t2.journalid": 7515,
      "▁t2.text": 7516,
      "▁serv": 7517,
      "▁side": 7518,
      "um_of_": 7519,
      "▁Li": 7520,
      "▁Lieutenant": 7521,
      "▁Californi": 7522,
      "▁earning": 7523,
      "▁eliminated": 7524,
      "▁Group": 7525,
      "▁Genre": 7526,
      "ther_": 7527,
      "_cost": 7528,
      "ID)": 7529,
      "▁111": 7530,
      "ilities": 7531,
      "▁Host": 7532,
      "roduct_P": 7533,
      "enance": 7534,
      "▁Per": 7535,
      "▁Program": 7536,
      "▁'J": 7537,
      "▁'V": 7538,
      "▁'In": 7539,
      "▁T3.E": 7540,
      "ocations": 7541,
      "otes\n": 7542,
      "▁Ryl": 7543,
      "▁Mark": 7544,
      "▁t4.did": 7545,
      "▁lines": 7546,
      "▁student?\n": 7547,
      "actories": 7548,
      "▁governor": 7549,
      "ies\n": 7550,
      "ascot": 7551,
      "▁master": 7552,
      "▁coauthor": 7553,
      "▁T1.club": 7554,
      "▁Steven": 7555,
      "ortg": 7556,
      "acilities": 7557,
      "_pressure": 7558,
      "▁Election_Cycle": 7559,
      "▁writer": 7560,
      "▁tell": 7561,
      "▁division": 7562,
      "els": 7563,
      "anceCreation": 7564,
      "▁avg(enrollment)": 7565,
      "ccess": 7566,
      "▁document_type_description": 7567,
      "ult\n": 7568,
      "▁public": 7569,
      "▁population?\n": 7570,
      "▁students?": 7571,
      "▁date_moved": 7572,
      "ents\n": 7573,
      "allation": 7574,
      "▁character": 7575,
      "▁chanceCreation": 7576,
      "_stock": 7577,
      "▁jitendra": 7578,
      "▁52": 7579,
      "▁5?\n": 7580,
      "▁500": 7581,
      "▁songs.\n": 7582,
      "▁sett": 7583,
      "ervation": 7584,
      "▁altitude": 7585,
      "▁local": 7586,
      "▁ended": 7587,
      "quare": 7588,
      "▁Students\n": 7589,
      "research": 7590,
      "▁there.\n": 7591,
      "ransit": 7592,
      "_datetime": 7593,
      "▁Italian": 7594,
      "▁sum(enrollment)": 7595,
      "ransaction_type_code": 7596,
      "▁accounting": 7597,
      "▁max(c": 7598,
      "▁reserved": 7599,
      "_Points\n": 7600,
      "▁\"Se": 7601,
      "▁\"Sh": 7602,
      "▁Representative": 7603,
      "_minute": 7604,
      "▁film_act": 7605,
      "▁employee_name": 7606,
      "▁employee's": 7607,
      "▁cities,": 7608,
      "▁class?\n": 7609,
      "▁projects.\n": 7610,
      "▁\"Michael": 7611,
      "▁ship\n": 7612,
      "▁shipping_agent": 7613,
      "s_allow": 7614,
      "▁\"Divesh": 7615,
      "▁list\n": 7616,
      "▁phone\n": 7617,
      "▁payment_date": 7618,
      "▁min(b": 7619,
      "▁min(T1.": 7620,
      "▁contract": 7621,
      "▁company?\n": 7622,
      "▁review\n": 7623,
      "▁review)\n": 7624,
      "▁ratings.\n": 7625,
      "reditation": 7626,
      "▁Person\n": 7627,
      "▁ranges": 7628,
      "pons": 7629,
      "ponse": 7630,
      "unit": 7631,
      "▁4.": 7632,
      "▁40\n": 7633,
      "▁county?\n": 7634,
      "▁courses.\n": 7635,
      "▁job\n": 7636,
      "▁types,": 7637,
      "▁t3.citation_num": 7638,
      "▁T2.screen_mode": 7639,
      "▁10?\n": 7640,
      "▁openning": 7641,
      "▁status.\n": 7642,
      "▁medals": 7643,
      "locity": 7644,
      "_to\n": 7645,
      "▁checkins": 7646,
      "▁STAT": 7647,
      "▁subm": 7648,
      "▁contained": 7649,
      "▁Apartments\n": 7650,
      "▁Apartment_F": 7651,
      "▁budget.\n": 7652,
      "▁budgeted": 7653,
      "-03-1": 7654,
      "▁T2.College": 7655,
      "▁\"F\"\n": 7656,
      "▁Projects\n": 7657,
      "▁made.\n": 7658,
      "▁8?\n": 7659,
      "▁80\n": 7660,
      "▁top?\n": 7661,
      "estival_Name": 7662,
      "▁accident": 7663,
      "▁acc_bal": 7664,
      "▁accreditation": 7665,
      "▁capitals": 7666,
      "▁appeared": 7667,
      "urch_id": 7668,
      "▁matches": 7669,
      "_amount\n": 7670,
      "▁ResType": 7671,
      "▁Residence": 7672,
      "▁Result\n": 7673,
      "▁T1.Member_ID": 7674,
      "▁15\n": 7675,
      "▁birth_country": 7676,
      "▁birthday": 7677,
      "▁180": 7678,
      "▁6000": 7679,
      "organisation": 7680,
      "emale'\n": 7681,
      "▁entrepreneurs.\n": 7682,
      "▁1998": 7683,
      "▁1996\n": 7684,
      "▁heights": 7685,
      "▁\"Eng": 7686,
      "_hour": 7687,
      "▁race\n": 7688,
      "_content": 7689,
      "▁Party\n": 7690,
      "▁'%D": 7691,
      "▁'%S": 7692,
      "▁volume\n": 7693,
      "▁professors?\n": 7694,
      "▁live?\n": 7695,
      "▁enzyme\n": 7696,
      "▁document_type_code\n": 7697,
      "▁invoice_number\n": 7698,
      "OMPU": 7699,
      "▁parties?\n": 7700,
      "▁submission\n": 7701,
      "▁submissions": 7702,
      "▁belonging": 7703,
      "▁\"mont": 7704,
      "_we": 7705,
      "▁buildUp": 7706,
      "▁Aircraft\n": 7707,
      "▁Date_Payment": 7708,
      "ribute_De": 7709,
      "▁\"new": 7710,
      "_phone\n": 7711,
      "▁learning\";\n": 7712,
      "▁\"Woody": 7713,
      "▁30?\n": 7714,
      "inema": 7715,
      "_complaint": 7716,
      "▁T1.date_of": 7717,
      "▁university\n": 7718,
      "_Value": 7719,
      "▁placed": 7720,
      "▁Dev": 7721,
      "oyal_F": 7722,
      "ource_system_code": 7723,
      "_start_date\n": 7724,
      "▁50?\n": 7725,
      "▁kansas": 7726,
      "▁cinema\n": 7727,
      "▁1000?\n": 7728,
      "▁2012\n": 7729,
      "▁T2.Railway_ID": 7730,
      "▁stock.\n": 7731,
      "▁size.\n": 7732,
      "▁2002?\n": 7733,
      "erformance_ID": 7734,
      "▁grants": 7735,
      "▁populous": 7736,
      "▁outcomes?\n": 7737,
      "▁them?\n": 7738,
      "▁them.\n": 7739,
      "▁\"Ind": 7740,
      "▁City\n": 7741,
      "▁City_Population": 7742,
      "▁5000?\n": 7743,
      "▁rate?\n": 7744,
      "▁Companies\n": 7745,
      "▁Student_Course_Enrolment\n": 7746,
      "_per_minute": 7747,
      "▁recently.\n": 7748,
      "_last_name\n": 7749,
      "▁models": 7750,
      "▁heads": 7751,
      "_Addresses\n": 7752,
      "▁manager_name": 7753,
      "▁follows": 7754,
      "▁sports?\n": 7755,
      "ax\n": 7756,
      "▁investor_id": 7757,
      "▁investor_id\n": 7758,
      "▁addres": 7759,
      "amera_lens": 7760,
      "▁engineers": 7761,
      "▁\"Heilo\"\n": 7762,
      "essment_N": 7763,
      "_Description\n": 7764,
      "▁email_address\n": 7765,
      "▁domain_publication": 7766,
      "_sea_level": 7767,
      "▁T2.country_id": 7768,
      "▁access_count": 7769,
      "▁School_ID\n": 7770,
      "▁hours.\n": 7771,
      "▁T3.station_id": 7772,
      "_NUM\n": 7773,
      "▁Behavior": 7774,
      "▁Heathrow": 7775,
      "▁citations\n": 7776,
      "aintenance_contract": 7777,
      "▁Actual": 7778,
      "▁defence": 7779,
      "▁ministers": 7780,
      "▁t5.citingpaperid": 7781,
      "▁\"Badlands\"?\n": 7782,
      "▁Assessment_N": 7783,
      "orgia": 7784,
      "▁managed": 7785,
      "hly_rental": 7786,
      "▁etzioni": 7787,
      "▁etzioni\"": 7788,
      "_OF": 7789,
      "ucas": 7790,
      "▁avg(Product_P": 7791,
      "▁T1.Product_Name": 7792,
      "▁media_types": 7793,
      "▁occup": 7794,
      "▁\"jitendra": 7795,
      "▁Game\";\n": 7796,
      "▁Sci.": 7797,
      "▁FDA_approved": 7798,
      "▁Daniella": 7799,
      "▁Policy_ID\n": 7800,
      "▁grapes": 7801,
      "▁\"Daniella": 7802,
      "▁exist?\n": 7803,
      "▁joined": 7804,
      "▁shamir\"": 7805,
      "▁Coelho\";\n": 7806,
      "▁typical_buying_price": 7807,
      "▁Srivastava": 7808,
      "▁malik\";\n": 7809,
      "▁'mid'": 7810,
      "_in_dollar": 7811,
      "▁debate_people": 7812,
      "▁happy_hour": 7813,
      "▁kids": 7814,
      "▁cell_mobile": 7815,
      "▁\"voluptate": 7816,
      "▁'female'\n": 7817,
      "▁zip_postcode\n": 7818,
      "▁Robel\"\n": 7819,
      ":06": 7820,
      "▁pets_allow": 7821,
      "▁single": 7822,
      "▁Prescrib": 7823,
      "▁Madison\n": 7824,
      "▁Retrieve": 7825,
      "▁T1.fault_log_entry_id": 7826,
      "▁\"Japan\"": 7827,
      "ibility_m": 7828,
      "yer\"": 7829,
      "▁Accreditation_type": 7830,
      "▁Draft_C": 7831,
      "▁coasters": 7832,
      "▁\"Banking\"": 7833,
      "amount_of_transaction)": 7834,
      "journalist_ID": 7835,
      "▁Order_Items\n": 7836,
      "▁Participants_in_Events": 7837,
      "▁\"idaho\";\n": 7838,
      "▁Code\n": 7839,
      "▁employment": 7840,
      "▁nurses": 7841,
      "▁Student_Addresses": 7842,
      "▁\"NYC\"": 7843,
      "_native_language": 7844,
      "▁Attribute_De": 7845,
      "▁departure": 7846,
      "▁idaho\n": 7847,
      "▁maintenance": 7848,
      "_Senator": 7849,
      "WEAZY": 7850,
      "▁special": 7851,
      "▁mailshot_customers": 7852,
      "▁Engineer_Visits": 7853,
      "_visibility_m": 7854,
      "lanned": 7855,
      "orphy": 7856,
      "▁Occupation": 7857,
      "▁\"kansas\";\n": 7858,
      "▁machines": 7859,
      "lectoral": 7860,
      "▁furnitures": 7861,
      "▁Detent": 7862,
      "▁'Initial": 7863,
      "▁Rylan": 7864,
      "_pressure_inch": 7865,
      "▁settled": 7866,
      "▁film_actor": 7867,
      "▁openning_year": 7868,
      "▁Apartment_Facilities": 7869,
      "OMPUTER": 7870,
      "▁buildUpPlay": 7871,
      "▁Date_Payment_Made": 7872,
      "▁kansas\n": 7873,
      "_per_minute_color": 7874,
      "▁addressed": 7875,
      "_sea_level_pressure_inch": 7876,
      "▁Behavior_Incident": 7877,
      "▁avg(Product_Price)": 7878,
      "▁pets_allowed": 7879,
      "▁Attribute_Def": 7880,
      "\")": 7881,
      "-P": 7882,
      "-fo": 7883,
      "09": 7884,
      "1'": 7885,
      "2?\n": 7886,
      "30": 7887,
      "42": 7888,
      "68": 7889,
      "760": 7890,
      "8\"\n": 7891,
      "9:2": 7892,
      "AG": 7893,
      "En": 7894,
      "EMENT": 7895,
      "G-P": 7896,
      "I\"\n": 7897,
      "K\"\n": 7898,
      "M_MiB": 7899,
      "Position": 7900,
      "Points)": 7901,
      "Weeks_on_Top": 7902,
      "_1": 7903,
      "_sta": 7904,
      "_los": 7905,
      "bandmate": 7906,
      "damage_millions_US": 7907,
      "egion": 7908,
      "eam_id": 7909,
      "egular": 7910,
      "employ": 7911,
      "eccv": 7912,
      "hur": 7913,
      "hran": 7914,
      "ius": 7915,
      "i\"\n": 7916,
      "iow": 7917,
      "ipt": 7918,
      "jee": 7919,
      "mann": 7920,
      "nual": 7921,
      "put": 7922,
      "r.": 7923,
      "s'": 7924,
      "uad": 7925,
      "val": 7926,
      "y\".\n": 7927,
      "y%\"\n": 7928,
      "zmann": 7929,
      "’.\n": 7930,
      "▁(*)": 7931,
      "▁our": 7932,
      "▁tag": 7933,
      "▁tallest": 7934,
      "▁treatment": 7935,
      "me\"": 7936,
      "▁Turcotte": 7937,
      "erman": 7938,
      "atural": 7939,
      "▁aid": 7940,
      "▁audience": 7941,
      "▁Ant": 7942,
      "▁Among": 7943,
      "▁AISTATS": 7944,
      "▁Area": 7945,
      "▁Afghanist": 7946,
      "▁SC": 7947,
      "▁Sw": 7948,
      "▁Sony": 7949,
      "ined": 7950,
      "ina\"": 7951,
      "▁From": 7952,
      "▁Fosse": 7953,
      "oring": 7954,
      "ors\n": 7955,
      "▁col": 7956,
      "▁coupon": 7957,
      "▁calendar": 7958,
      "▁ceremony": 7959,
      "▁Writ": 7960,
      "▁Wright": 7961,
      "▁Woody": 7962,
      "es'\n": 7963,
      "esult": 7964,
      "esearch": 7965,
      "▁Ort": 7966,
      "itch": 7967,
      "▁pid\n": 7968,
      "rewer": 7969,
      "ouri": 7970,
      "an'": 7971,
      "anj": 7972,
      "an'\n": 7973,
      "animal": 7974,
      "▁Jap": 7975,
      "arm": 7976,
      "ar_rating": 7977,
      "▁T1.oth": 7978,
      "▁T1.party": 7979,
      "▁T1.amenity_name": 7980,
      "▁T1.SSN": 7981,
      "▁T1.activity_name": 7982,
      "▁T1.lot": 7983,
      "▁T1.outcome_code": 7984,
      "▁T1.nationality": 7985,
      "▁T1.location_code": 7986,
      "▁T1.engineer_id": 7987,
      "▁w\n": 7988,
      "▁winer": 7989,
      "▁T2.w": 7990,
      "▁T2.part": 7991,
      "▁T2.lname": 7992,
      "▁T2.zip": 7993,
      "▁T2.Tourist_Attraction": 7994,
      "▁T2.member": 7995,
      "▁T2.hours": 7996,
      "▁T2.mountain": 7997,
      "▁T2.SSN": 7998,
      "▁T2.lot": 7999
    },
    "merges": [
      [
        "▁",
        "t"
      ],
      [
        "m",
        "e"
      ],
      [
        "▁",
        "T"
      ],
      [
        "s",
        "t"
      ],
      [
        "e",
        "r"
      ],
      [
        "a",
        "t"
      ],
      [
        "▁t",
        "h"
      ],
      [
        "i",
        "d"
      ],
      [
        "▁",
        "a"
      ],
      [
        "▁",
        "A"
      ],
      [
        "R",
        "O"
      ],
      [
        "▁",
        "S"
      ],
      [
        "i",
        "n"
      ],
      [
        "C",
        "T"
      ],
      [
        "▁",
        "F"
      ],
      [
        "a",
        "me"
      ],
      [
        "▁",
        "="
      ],
      [
        "▁th",
        "e"
      ],
      [
        "n",
        "t"
      ],
      [
        "o",
        "r"
      ],
      [
        "E",
        "CT"
      ],
      [
        "▁A",
        "S"
      ],
      [
        "E",
        "L"
      ],
      [
        "RO",
        "M"
      ],
      [
        "EL",
        "ECT"
      ],
      [
        "▁F",
        "ROM"
      ],
      [
        "▁",
        "c"
      ],
      [
        "n",
        "ame"
      ],
      [
        "▁S",
        "ELECT"
      ],
      [
        "1",
        "."
      ],
      [
        "▁",
        "W"
      ],
      [
        "I",
        "N"
      ],
      [
        "o",
        "n"
      ],
      [
        "e",
        "s"
      ],
      [
        "2",
        "."
      ],
      [
        "▁",
        "O"
      ],
      [
        "E",
        "R"
      ],
      [
        "i",
        "t"
      ],
      [
        "▁",
        "p"
      ],
      [
        "r",
        "e"
      ],
      [
        "o",
        "u"
      ],
      [
        "a",
        "n"
      ],
      [
        "o",
        "f"
      ],
      [
        "▁",
        "J"
      ],
      [
        "▁J",
        "O"
      ],
      [
        "▁JO",
        "IN"
      ],
      [
        "▁O",
        "N"
      ],
      [
        "d",
        "e"
      ],
      [
        "▁",
        "of"
      ],
      [
        "a",
        "r"
      ],
      [
        "H",
        "ER"
      ],
      [
        "▁W",
        "HER"
      ],
      [
        "▁WHER",
        "E"
      ],
      [
        "▁T",
        "1."
      ],
      [
        "i",
        "on"
      ],
      [
        "_",
        "id"
      ],
      [
        "▁",
        "w"
      ],
      [
        "▁T",
        "2."
      ],
      [
        "▁",
        "\""
      ],
      [
        "c",
        "t"
      ],
      [
        "▁",
        "m"
      ],
      [
        "i",
        "c"
      ],
      [
        "ou",
        "nt"
      ],
      [
        "r",
        "o"
      ],
      [
        "▁",
        "B"
      ],
      [
        "s",
        "e"
      ],
      [
        "a",
        "p"
      ],
      [
        "?",
        "\n"
      ],
      [
        "l",
        "e"
      ],
      [
        "▁",
        "name"
      ],
      [
        "▁B",
        "Y"
      ],
      [
        "n",
        "d"
      ],
      [
        "a",
        "l"
      ],
      [
        "h",
        "o"
      ],
      [
        "▁",
        "st"
      ],
      [
        "▁",
        "d"
      ],
      [
        "at",
        "e"
      ],
      [
        "▁",
        "f"
      ],
      [
        "r",
        "a"
      ],
      [
        "3",
        "."
      ],
      [
        "▁t",
        "1."
      ],
      [
        "i",
        "s"
      ],
      [
        ".",
        "\n"
      ],
      [
        "▁",
        "b"
      ],
      [
        "▁",
        "in"
      ],
      [
        "ap",
        "er"
      ],
      [
        "_",
        "name"
      ],
      [
        "▁",
        ","
      ],
      [
        "▁",
        "D"
      ],
      [
        "v",
        "e"
      ],
      [
        "in",
        "g"
      ],
      [
        "h",
        "at"
      ],
      [
        "▁t",
        "2."
      ],
      [
        "▁",
        "s"
      ],
      [
        "at",
        "ion"
      ],
      [
        "▁",
        "h"
      ],
      [
        "▁a",
        "re"
      ],
      [
        "u",
        "m"
      ],
      [
        "▁",
        "L"
      ],
      [
        "l",
        "a"
      ],
      [
        "▁c",
        "ount"
      ],
      [
        "u",
        "st"
      ],
      [
        "y",
        "p"
      ],
      [
        "▁",
        "C"
      ],
      [
        "▁W",
        "hat"
      ],
      [
        "i",
        "st"
      ],
      [
        "▁a",
        "nd"
      ],
      [
        "o",
        "me"
      ],
      [
        "g",
        "e"
      ],
      [
        "▁",
        "e"
      ],
      [
        "me",
        "nt"
      ],
      [
        "▁T",
        "1"
      ],
      [
        "▁T",
        "2"
      ],
      [
        "▁",
        "G"
      ],
      [
        "t",
        "h"
      ],
      [
        "l",
        "l"
      ],
      [
        "_",
        "c"
      ],
      [
        "ome",
        "r"
      ],
      [
        "ust",
        "omer"
      ],
      [
        "▁t",
        "3."
      ],
      [
        "it",
        "y"
      ],
      [
        "b",
        "er"
      ],
      [
        "l",
        "o"
      ],
      [
        "e",
        "d"
      ],
      [
        "I",
        "D"
      ],
      [
        "▁",
        "1"
      ],
      [
        "r",
        "i"
      ],
      [
        "(",
        "*"
      ],
      [
        "(*",
        ")"
      ],
      [
        "▁",
        "n"
      ],
      [
        "0",
        "0"
      ],
      [
        "ar",
        "t"
      ],
      [
        "m",
        "p"
      ],
      [
        ";",
        "\n"
      ],
      [
        "▁O",
        "R"
      ],
      [
        "c",
        "h"
      ],
      [
        "▁h",
        "a"
      ],
      [
        "U",
        "P"
      ],
      [
        "RO",
        "UP"
      ],
      [
        "▁G",
        "ROUP"
      ],
      [
        "o",
        "de"
      ],
      [
        "i",
        "r"
      ],
      [
        "▁",
        "is"
      ],
      [
        "v",
        "er"
      ],
      [
        "u",
        "th"
      ],
      [
        "▁",
        "("
      ],
      [
        "aper",
        "id"
      ],
      [
        "p",
        "aperid"
      ],
      [
        "k",
        "e"
      ],
      [
        "uth",
        "or"
      ],
      [
        "u",
        "ct"
      ],
      [
        "i",
        "l"
      ],
      [
        "D",
        "ER"
      ],
      [
        "▁OR",
        "DER"
      ],
      [
        "y",
        "e"
      ],
      [
        "▁count",
        "(*)"
      ],
      [
        "or",
        "d"
      ],
      [
        "S",
        "T"
      ],
      [
        "um",
        "ber"
      ],
      [
        "▁",
        "H"
      ],
      [
        "ro",
        "d"
      ],
      [
        "I",
        "ST"
      ],
      [
        "it",
        "h"
      ],
      [
        "c",
        "e"
      ],
      [
        "rod",
        "uct"
      ],
      [
        "o",
        "l"
      ],
      [
        "▁name",
        "s"
      ],
      [
        "N",
        "D"
      ],
      [
        "▁A",
        "ND"
      ],
      [
        "IN",
        "CT"
      ],
      [
        "IST",
        "INCT"
      ],
      [
        "u",
        "s"
      ],
      [
        "▁a",
        "ll"
      ],
      [
        "o",
        "p"
      ],
      [
        "es",
        "s"
      ],
      [
        "▁t",
        "2"
      ],
      [
        "▁t",
        "1"
      ],
      [
        "▁",
        "2"
      ],
      [
        "▁",
        "re"
      ],
      [
        "_",
        "ID"
      ],
      [
        "▁t",
        "4"
      ],
      [
        "ou",
        "r"
      ],
      [
        "e",
        "n"
      ],
      [
        "u",
        "de"
      ],
      [
        "▁w",
        "ith"
      ],
      [
        "ord",
        "er"
      ],
      [
        "▁p",
        "aper"
      ],
      [
        "▁",
        "P"
      ],
      [
        "▁",
        "de"
      ],
      [
        "▁",
        "'"
      ],
      [
        "▁n",
        "umber"
      ],
      [
        "▁L",
        "I"
      ],
      [
        "▁",
        ")"
      ],
      [
        "u",
        "r"
      ],
      [
        "in",
        "d"
      ],
      [
        "an",
        "y"
      ],
      [
        "ude",
        "nt"
      ],
      [
        "▁th",
        "at"
      ],
      [
        "▁w",
        "ho"
      ],
      [
        "yp",
        "e"
      ],
      [
        "_c",
        "ode"
      ],
      [
        "E",
        "S"
      ],
      [
        "I",
        "T"
      ],
      [
        "▁D",
        "ISTINCT"
      ],
      [
        "▁ha",
        "ve"
      ],
      [
        "▁st",
        "ate"
      ],
      [
        "i",
        "g"
      ],
      [
        "▁c",
        "ustomer"
      ],
      [
        "u",
        "b"
      ],
      [
        "ES",
        "C"
      ],
      [
        "▁D",
        "ESC"
      ],
      [
        "▁T",
        "3."
      ],
      [
        "o",
        "c"
      ],
      [
        "▁",
        ">"
      ],
      [
        "h",
        "ra"
      ],
      [
        "\"",
        "\n"
      ],
      [
        "yp",
        "hra"
      ],
      [
        "M",
        "IT"
      ],
      [
        "▁LI",
        "MIT"
      ],
      [
        "ke",
        "yphra"
      ],
      [
        "▁F",
        "ind"
      ],
      [
        "o",
        "t"
      ],
      [
        "e",
        "t"
      ],
      [
        "keyphra",
        "se"
      ],
      [
        "u",
        "e"
      ],
      [
        "f",
        "f"
      ],
      [
        "▁f",
        "or"
      ],
      [
        "u",
        "l"
      ],
      [
        "er",
        "s"
      ],
      [
        "a",
        "uthor"
      ],
      [
        "▁",
        "R"
      ],
      [
        "ho",
        "w"
      ],
      [
        "o",
        "w"
      ],
      [
        "N",
        "T"
      ],
      [
        "▁m",
        "o"
      ],
      [
        "▁",
        "me"
      ],
      [
        "▁1",
        "\n"
      ],
      [
        "a",
        "ch"
      ],
      [
        "o",
        "m"
      ],
      [
        "▁",
        "M"
      ],
      [
        "▁m",
        "any"
      ],
      [
        "▁t4",
        "."
      ],
      [
        "_",
        "t"
      ],
      [
        "\"",
        ";\n"
      ],
      [
        "p",
        "art"
      ],
      [
        "N",
        "ame"
      ],
      [
        "ye",
        "ar"
      ],
      [
        "i",
        "e"
      ],
      [
        "O",
        "U"
      ],
      [
        "▁",
        "l"
      ],
      [
        "er",
        "e"
      ],
      [
        "▁p",
        "roduct"
      ],
      [
        "▁st",
        "udent"
      ],
      [
        "a",
        "ct"
      ],
      [
        "▁C",
        "OU"
      ],
      [
        "▁t",
        "3"
      ],
      [
        "ic",
        "h"
      ],
      [
        "ir",
        "st"
      ],
      [
        "ic",
        "e"
      ],
      [
        "▁",
        "g"
      ],
      [
        "i",
        "es"
      ],
      [
        "a",
        "ge"
      ],
      [
        "a",
        "d"
      ],
      [
        "▁COU",
        "NT"
      ],
      [
        "a",
        "s"
      ],
      [
        "▁c",
        "ity"
      ],
      [
        "ig",
        "h"
      ],
      [
        "part",
        "ment"
      ],
      [
        "or",
        "e"
      ],
      [
        "u",
        "ment"
      ],
      [
        "r",
        "an"
      ],
      [
        "▁",
        "id"
      ],
      [
        "r",
        "y"
      ],
      [
        "p",
        "t"
      ],
      [
        "i",
        "p"
      ],
      [
        "▁m",
        "a"
      ],
      [
        "▁c",
        "o"
      ],
      [
        "i",
        "m"
      ],
      [
        "ve",
        "n"
      ],
      [
        "▁",
        "order"
      ],
      [
        "▁T1.",
        "c"
      ],
      [
        "▁S",
        "t"
      ],
      [
        "▁H",
        "ow"
      ],
      [
        "mp",
        "lo"
      ],
      [
        "oc",
        "ument"
      ],
      [
        "mplo",
        "ye"
      ],
      [
        "s",
        "\n"
      ],
      [
        "h",
        "ich"
      ],
      [
        "la",
        "st"
      ],
      [
        "e",
        "st"
      ],
      [
        "ri",
        "ver"
      ],
      [
        "ven",
        "ue"
      ],
      [
        "▁b",
        "y"
      ],
      [
        "▁t3.",
        "paperid"
      ],
      [
        "▁S",
        "how"
      ],
      [
        "a",
        "il"
      ],
      [
        "la",
        "y"
      ],
      [
        "▁th",
        "an"
      ],
      [
        "_id",
        "\n"
      ],
      [
        "on",
        "g"
      ],
      [
        "st",
        "a"
      ],
      [
        "author",
        "id"
      ],
      [
[...]
